{
  "version": "1.0",
  "truncation": null,
  "padding": null,
  "added_tokens": [
    {
      "id": 0,
      "content": "<pad>",
      "single_word": false,
      "lstrip": false,
      "rstrip": false,
      "normalized": false,
      "special": true
    },
    {
      "id": 1,
      "content": "<unk>",
      "single_word": false,
      "lstrip": false,
      "rstrip": false,
      "normalized": false,
      "special": true
    },
    {
      "id": 2,
      "content": "<bos>",
      "single_word": false,
      "lstrip": false,
      "rstrip": false,
      "normalized": false,
      "special": true
    },
    {
      "id": 3,
      "content": "<eos>",
      "single_word": false,
      "lstrip": false,
      "rstrip": false,
      "normalized": false,
      "special": true
    },
    {
      "id": 4,
      "content": "<sep>",
      "single_word": false,
      "lstrip": false,
      "rstrip": false,
      "normalized": false,
      "special": true
    },
    {
      "id": 5,
      "content": "<mask>",
      "single_word": false,
      "lstrip": false,
      "rstrip": false,
      "normalized": false,
      "special": true
    },
    {
      "id": 6,
      "content": "<cls>",
      "single_word": false,
      "lstrip": false,
      "rstrip": false,
      "normalized": false,
      "special": true
    },
    {
      "id": 7,
      "content": "<task_norm>",
      "single_word": false,
      "lstrip": false,
      "rstrip": false,
      "normalized": false,
      "special": true
    },
    {
      "id": 8,
      "content": "<task_id>",
      "single_word": false,
      "lstrip": false,
      "rstrip": false,
      "normalized": false,
      "special": true
    },
    {
      "id": 9,
      "content": "<task_clm>",
      "single_word": false,
      "lstrip": false,
      "rstrip": false,
      "normalized": false,
      "special": true
    },
    {
      "id": 10,
      "content": "<dial_unknown>",
      "single_word": false,
      "lstrip": false,
      "rstrip": false,
      "normalized": false,
      "special": true
    },
    {
      "id": 11,
      "content": "<dial:BAR>",
      "single_word": false,
      "lstrip": false,
      "rstrip": false,
      "normalized": false,
      "special": true
    },
    {
      "id": 12,
      "content": "<dial:CHI>",
      "single_word": false,
      "lstrip": false,
      "rstrip": false,
      "normalized": false,
      "special": true
    },
    {
      "id": 13,
      "content": "<dial:KHU>",
      "single_word": false,
      "lstrip": false,
      "rstrip": false,
      "normalized": false,
      "special": true
    },
    {
      "id": 14,
      "content": "<dial:KIS>",
      "single_word": false,
      "lstrip": false,
      "rstrip": false,
      "normalized": false,
      "special": true
    },
    {
      "id": 15,
      "content": "<dial:MYM>",
      "single_word": false,
      "lstrip": false,
      "rstrip": false,
      "normalized": false,
      "special": true
    },
    {
      "id": 16,
      "content": "<dial:NAR>",
      "single_word": false,
      "lstrip": false,
      "rstrip": false,
      "normalized": false,
      "special": true
    },
    {
      "id": 17,
      "content": "<dial:NOA>",
      "single_word": false,
      "lstrip": false,
      "rstrip": false,
      "normalized": false,
      "special": true
    },
    {
      "id": 18,
      "content": "<dial:NSD>",
      "single_word": false,
      "lstrip": false,
      "rstrip": false,
      "normalized": false,
      "special": true
    },
    {
      "id": 19,
      "content": "<dial:RAJ>",
      "single_word": false,
      "lstrip": false,
      "rstrip": false,
      "normalized": false,
      "special": true
    },
    {
      "id": 20,
      "content": "<dial:RAN>",
      "single_word": false,
      "lstrip": false,
      "rstrip": false,
      "normalized": false,
      "special": true
    },
    {
      "id": 21,
      "content": "<dial:STD>",
      "single_word": false,
      "lstrip": false,
      "rstrip": false,
      "normalized": false,
      "special": true
    },
    {
      "id": 22,
      "content": "<dial:SYL>",
      "single_word": false,
      "lstrip": false,
      "rstrip": false,
      "normalized": false,
      "special": true
    },
    {
      "id": 23,
      "content": "<dial:TAN>",
      "single_word": false,
      "lstrip": false,
      "rstrip": false,
      "normalized": false,
      "special": true
    }
  ],
  "normalizer": {
    "type": "NFC"
  },
  "pre_tokenizer": {
    "type": "BertPreTokenizer"
  },
  "post_processor": null,
  "decoder": {
    "type": "WordPiece",
    "prefix": "##",
    "cleanup": false
  },
  "model": {
    "type": "WordPiece",
    "unk_token": "<unk>",
    "continuing_subword_prefix": "##",
    "max_input_chars_per_word": 100,
    "vocab": {
      "<pad>": 0,
      "<unk>": 1,
      "<bos>": 2,
      "<eos>": 3,
      "<sep>": 4,
      "<mask>": 5,
      "<cls>": 6,
      "<task_norm>": 7,
      "<task_id>": 8,
      "<task_clm>": 9,
      "<dial_unknown>": 10,
      "<dial:BAR>": 11,
      "<dial:CHI>": 12,
      "<dial:KHU>": 13,
      "<dial:KIS>": 14,
      "<dial:MYM>": 15,
      "<dial:NAR>": 16,
      "<dial:NOA>": 17,
      "<dial:NSD>": 18,
      "<dial:RAJ>": 19,
      "<dial:RAN>": 20,
      "<dial:STD>": 21,
      "<dial:SYL>": 22,
      "<dial:TAN>": 23,
      " ": 24,
      "!": 25,
      "\"": 26,
      "%": 27,
      "'": 28,
      "(": 29,
      ")": 30,
      "*": 31,
      ",": 32,
      "-": 33,
      ".": 34,
      "/": 35,
      ":": 36,
      ";": 37,
      "<": 38,
      ">": 39,
      "?": 40,
      "B": 41,
      "C": 42,
      "R": 43,
      "_": 44,
      "a": 45,
      "c": 46,
      "e": 47,
      "h": 48,
      "i": 49,
      "r": 50,
      "t": 51,
      "x": 52,
      "۔": 53,
      "क": 54,
      "ि": 55,
      "।": 56,
      "ঁ": 57,
      "ং": 58,
      "ঃ": 59,
      "অ": 60,
      "আ": 61,
      "ই": 62,
      "ঈ": 63,
      "উ": 64,
      "ঊ": 65,
      "ঋ": 66,
      "এ": 67,
      "ঐ": 68,
      "ও": 69,
      "ঔ": 70,
      "ক": 71,
      "খ": 72,
      "গ": 73,
      "ঘ": 74,
      "ঙ": 75,
      "চ": 76,
      "ছ": 77,
      "জ": 78,
      "ঝ": 79,
      "ঞ": 80,
      "ট": 81,
      "ঠ": 82,
      "ড": 83,
      "ঢ": 84,
      "ণ": 85,
      "ত": 86,
      "থ": 87,
      "দ": 88,
      "ধ": 89,
      "ন": 90,
      "প": 91,
      "ফ": 92,
      "ব": 93,
      "ভ": 94,
      "ম": 95,
      "য": 96,
      "র": 97,
      "ল": 98,
      "শ": 99,
      "ষ": 100,
      "স": 101,
      "হ": 102,
      "়": 103,
      "া": 104,
      "ি": 105,
      "ী": 106,
      "ু": 107,
      "ূ": 108,
      "ৃ": 109,
      "ে": 110,
      "ৈ": 111,
      "ো": 112,
      "ৌ": 113,
      "্": 114,
      "ৎ": 115,
      "০": 116,
      "১": 117,
      "২": 118,
      "৩": 119,
      "৪": 120,
      "৫": 121,
      "৬": 122,
      "৭": 123,
      "৮": 124,
      "৯": 125,
      "ৰ": 126,
      "ৱ": 127,
      "৷": 128,
      "—": 129,
      "“": 130,
      "…": 131,
      "❝": 132,
      "❞": 133,
      "🤣": 134,
      "##ি": 135,
      "##ত": 136,
      "##ল": 137,
      "##ো": 138,
      "##ী": 139,
      "##ব": 140,
      "##ন": 141,
      "##র": 142,
      "##্": 143,
      "##ট": 144,
      "##ম": 145,
      "##ে": 146,
      "##ই": 147,
      "##ণ": 148,
      "##হ": 149,
      "##য": 150,
      "##া": 151,
      "##়": 152,
      "##দ": 153,
      "##ু": 154,
      "##গ": 155,
      "##ক": 156,
      "##শ": 157,
      "##আ": 158,
      "##ও": 159,
      "##ড": 160,
      "##প": 161,
      "##ূ": 162,
      "##উ": 163,
      "##স": 164,
      "##ছ": 165,
      "##ভ": 166,
      "##জ": 167,
      "##ঞ": 168,
      "##খ": 169,
      "##ং": 170,
      "##ফ": 171,
      "##চ": 172,
      "##এ": 173,
      "##থ": 174,
      "##ষ": 175,
      "##ধ": 176,
      "##ঁ": 177,
      "##ৌ": 178,
      "##ঙ": 179,
      "##ৰ": 180,
      "##ঠ": 181,
      "##ৃ": 182,
      "##ঝ": 183,
      "##অ": 184,
      "##ৈ": 185,
      "##০": 186,
      "##ৎ": 187,
      "##ঘ": 188,
      "##৷": 189,
      "##১": 190,
      "##৫": 191,
      "##R": 192,
      "##B": 193,
      "##৭": 194,
      "##৯": 195,
      "##ঢ": 196,
      "##ঈ": 197,
      "##ঃ": 198,
      "##২": 199,
      "##৬": 200,
      "##৩": 201,
      "##ঊ": 202,
      "##ঔ": 203,
      "##ঐ": 204,
      "##৮": 205,
      "##৪": 206,
      "##ঋ": 207,
      "##ৱ": 208,
      "##🤣": 209,
      "##ि": 210,
      "##❞": 211,
      "##h": 212,
      "##a": 213,
      "##i": 214,
      "##r": 215,
      "##x": 216,
      "##t": 217,
      "##য়": 218,
      "##ার": 219,
      "##াই": 220,
      "##ান": 221,
      "##্য": 222,
      "##ের": 223,
      "না": 224,
      "##য়া": 225,
      "##লা": 226,
      "##ছে": 227,
      "আম": 228,
      "##রে": 229,
      "কি": 230,
      "##ন্": 231,
      "##ড়": 232,
      "তো": 233,
      "##লে": 234,
      "##তা": 235,
      "##রা": 236,
      "বা": 237,
      "##তে": 238,
      "দি": 239,
      "##রি": 240,
      "##টা": 241,
      "দে": 242,
      "##্যা": 243,
      "##নে": 244,
      "##াল": 245,
      "##ছি": 246,
      "##য়ে": 247,
      "এক": 248,
      "এই": 249,
      "##ুই": 250,
      "##ায়": 251,
      "##াক": 252,
      "##িন": 253,
      "যে": 254,
      "##বে": 255,
      "আর": 256,
      "##াগ": 257,
      "##াম": 258,
      "##ারে": 259,
      "##ুম": 260,
      "বি": 261,
      "আমি": 262,
      "কর": 263,
      "আই": 264,
      "##্র": 265,
      "##তি": 266,
      "##বার": 267,
      "##লো": 268,
      "##ক্": 269,
      "##ুন": 270,
      "মা": 271,
      "##বা": 272,
      "##ডা": 273,
      "##স্": 274,
      "##তো": 275,
      "বে": 276,
      "নি": 277,
      "আমার": 278,
      "অই": 279,
      "ওই": 280,
      "##েই": 281,
      "কই": 282,
      "##চ্": 283,
      "##লি": 284,
      "##ড়ি": 285,
      "আছে": 286,
      "##টি": 287,
      "##ুর": 288,
      "##োন": 289,
      "মান": 290,
      "##গে": 291,
      "##দি": 292,
      "##কে": 293,
      "##লাম": 294,
      "লাগ": 295,
      "গে": 296,
      "##কা": 297,
      "##দে": 298,
      "আঁ": 299,
      "##না": 300,
      "##ল্": 301,
      "##াও": 302,
      "##োর": 303,
      "##ত্": 304,
      "সম": 305,
      "##য়ার": 306,
      "##বো": 307,
      "যাই": 308,
      "কা": 309,
      "তার": 310,
      "সা": 311,
      "##বি": 312,
      "##ানি": 313,
      "##ন্ত": 314,
      "নাই": 315,
      "হা": 316,
      "##সে": 317,
      "##য়্য": 318,
      "##র্": 319,
      "তুম": 320,
      "##সি": 321,
      "হই": 322,
      "ভা": 323,
      "##থা": 324,
      "কে": 325,
      "এখ": 326,
      "দেখ": 327,
      "##্ট": 328,
      "##ন্দ": 329,
      "ভাল": 330,
      "যা": 331,
      "##নি": 332,
      "রা": 333,
      "##কি": 334,
      "বু": 335,
      "সব": 336,
      "##ারি": 337,
      "##জি": 338,
      "##শি": 339,
      "খই": 340,
      "##হা": 341,
      "##ড়া": 342,
      "##ারা": 343,
      "তোম": 344,
      "করে": 345,
      "##গা": 346,
      "##ান্": 347,
      "খর": 348,
      "প্র": 349,
      "##দ্": 350,
      "##হন": 351,
      "##ুল": 352,
      "পা": 353,
      "একটা": 354,
      "তুই": 355,
      "##ছু": 356,
      "##াইন": 357,
      "থাক": 358,
      "##ডি": 359,
      "গা": 360,
      "তুমি": 361,
      "অনে": 362,
      "##ুষ": 363,
      "কোন": 364,
      "##জ্": 365,
      "তা": 366,
      "##িক": 367,
      "হে": 368,
      "খা": 369,
      "ভালো": 370,
      "##দিন": 371,
      "বাই": 372,
      "বাড়ি": 373,
      "##ঙ্": 374,
      "সে": 375,
      "##সা": 376,
      "##নের": 377,
      "মনে": 378,
      "##তাম": 379,
      "খে": 380,
      "দুই": 381,
      "##োই": 382,
      "মানে": 383,
      "আমরা": 384,
      "##বু": 385,
      "খাই": 386,
      "##ানে": 387,
      "খু": 388,
      "গরি": 389,
      "ভাই": 390,
      "হয়": 391,
      "##ার্": 392,
      "লই": 393,
      "কী": 394,
      "সু": 395,
      "মে": 396,
      "লাই": 397,
      "কিছু": 398,
      "টে": 399,
      "##ডে": 400,
      "কিন্ত": 401,
      "স্": 402,
      "##জন": 403,
      "##জে": 404,
      "##নো": 405,
      "যায়": 406,
      "##দা": 407,
      "##্যাঁ": 408,
      "##িয়া": 409,
      "কিন্তু": 410,
      "##তার": 411,
      "##িনি": 412,
      "নাম": 413,
      "তোমার": 414,
      "##মু": 415,
      "মানুষ": 416,
      "##জা": 417,
      "##জার": 418,
      "সি": 419,
      "আছি": 420,
      "আস": 421,
      "চাই": 422,
      "মু": 423,
      "মো": 424,
      "##ালি": 425,
      "##হে": 426,
      "এর": 427,
      "বই": 428,
      "বেশি": 429,
      "##ছা": 430,
      "মি": 431,
      "আবার": 432,
      "কথা": 433,
      "##ক্ষ": 434,
      "##হি": 435,
      "তোর": 436,
      "মাই": 437,
      "আঁই": 438,
      "দিয়া": 439,
      "##ল্লা": 440,
      "##ন্য": 441,
      "ফরে": 442,
      "গর": 443,
      "কয়": 444,
      "##টে": 445,
      "যদি": 446,
      "বড়": 447,
      "##দের": 448,
      "বল": 449,
      "করি": 450,
      "##েরে": 451,
      "ফু": 452,
      "তে": 453,
      "গেছে": 454,
      "##কার": 455,
      "##ম্": 456,
      "সময়": 457,
      "##লাই": 458,
      "ফা": 459,
      "##গো": 460,
      "##গু": 461,
      "##চ্ছে": 462,
      "অনেক": 463,
      "এহন": 464,
      "##টু": 465,
      "##ানা": 466,
      "চা": 467,
      "##য়্যে": 468,
      "আগে": 469,
      "তাই": 470,
      "ছা": 471,
      "##চি": 472,
      "##মি": 473,
      "লাগে": 474,
      "কিতা": 475,
      "##ন্ধ": 476,
      "আঁর": 477,
      "##মা": 478,
      "আফ": 479,
      "##দেশ": 480,
      "আরে": 481,
      "অয়": 482,
      "##েষ": 483,
      "আপ": 484,
      "খুব": 485,
      "রে": 486,
      "##াকা": 487,
      "দিন": 488,
      "##াওয়া": 489,
      "##ছো": 490,
      "অব": 491,
      "ইয়া": 492,
      "প্": 493,
      "লগে": 494,
      "##মে": 495,
      "ব্যা": 496,
      "##ক্কা": 497,
      "##োক": 498,
      "পর": 499,
      "##্যে": 500,
      "##চা": 501,
      "##াকে": 502,
      "বুঝ": 503,
      "লা": 504,
      "ক্": 505,
      "মুই": 506,
      "দু": 507,
      "##ব্": 508,
      "জান": 509,
      "##ঞ্": 510,
      "হেই": 511,
      "দা": 512,
      "##চ্ছা": 513,
      "##ন্দর": 514,
      "##চে": 515,
      "##ির": 516,
      "বলে": 517,
      "##যে": 518,
      "তু": 519,
      "##খা": 520,
      "##ন্ট": 521,
      "##মন": 522,
      "##নার": 523,
      "চি": 524,
      "বিশ": 525,
      "পার": 526,
      "বাং": 527,
      "##্টা": 528,
      "##ভা": 529,
      "নে": 530,
      "গই": 531,
      "পরি": 532,
      "##ষ্ট": 533,
      "##খন": 534,
      "##থে": 535,
      "ফর": 536,
      "##জ্ঞ": 537,
      "##ড়ে": 538,
      "কোনো": 539,
      "কো": 540,
      "এখন": 541,
      "ফাই": 542,
      "অইছে": 543,
      "বাংলা": 544,
      "দিয়ে": 545,
      "থা": 546,
      "মন": 547,
      "##ুক": 548,
      "হি": 549,
      "কইরা": 550,
      "পরে": 551,
      "##োয়া": 552,
      "বউ": 553,
      "বিয়া": 554,
      "কার": 555,
      "##াইল": 556,
      "##খান": 557,
      "গু": 558,
      "আমারে": 559,
      "অ্যাঁ": 560,
      "সুন্দর": 561,
      "ভি": 562,
      "##ীর": 563,
      "##স্ট": 564,
      "মোর": 565,
      "##প্": 566,
      "ভালা": 567,
      "বালা": 568,
      "দেই": 569,
      "কাম": 570,
      "গি": 571,
      "##রো": 572,
      "ঠিক": 573,
      "ছে": 574,
      "করো": 575,
      "খালি": 576,
      "##ছর": 577,
      "##রার": 578,
      "ব্য": 579,
      "##তু": 580,
      "##লায়": 581,
      "কুন": 582,
      "##য়াই": 583,
      "অন": 584,
      "##রাম": 585,
      "##লার": 586,
      "লে": 587,
      "হুম": 588,
      "লইয়া": 589,
      "বন্ধ": 590,
      "এক্": 591,
      "তিন": 592,
      "পাই": 593,
      "হবে": 594,
      "ফি": 595,
      "গেই": 596,
      "করতে": 597,
      "##ঙ্গ": 598,
      "বাংলাদেশ": 599,
      "আগ": 600,
      "এইডা": 601,
      "##শো": 602,
      "সাথে": 603,
      "##োগ": 604,
      "টা": 605,
      "সম্": 606,
      "##ওয়া": 607,
      "ফে": 608,
      "ছি": 609,
      "ছো": 610,
      "শেষ": 611,
      "##ন্ত্র": 612,
      "##তের": 613,
      "শি": 614,
      "##্যার": 615,
      "##ষ্": 616,
      "##লের": 617,
      "##ুরু": 618,
      "কু": 619,
      "##টার": 620,
      "বো": 621,
      "নিয়ে": 622,
      "##বেন": 623,
      "##ত্ত": 624,
      "##পা": 625,
      "##াইয়া": 626,
      "##কু": 627,
      "জন্য": 628,
      "টি": 629,
      "##ত্তে": 630,
      "##্যান": 631,
      "ফরি": 632,
      "জানি": 633,
      "##ফরে": 634,
      "করা": 635,
      "ফার": 636,
      "আন": 637,
      "দর": 638,
      "এট": 639,
      "মই": 640,
      "জি": 641,
      "##্ব": 642,
      "##স্তা": 643,
      "কতা": 644,
      "কাজ": 645,
      "##োইন": 646,
      "দেয়": 647,
      "##শা": 648,
      "##য়ের": 649,
      "এলা": 650,
      "গো": 651,
      "##য়ান": 652,
      "রাখ": 653,
      "হয়ে": 654,
      "সাম": 655,
      "##য়ো": 656,
      "##তাছে": 657,
      "বছর": 658,
      "সেই": 659,
      "##ইন": 660,
      "উপ": 661,
      "##ীব": 662,
      "রাই": 663,
      "##াগা": 664,
      "##দ্ধ": 665,
      "##ত্র": 666,
      "তারা": 667,
      "টাকা": 668,
      "##মান": 669,
      "##ন্ড": 670,
      "##ক্ক": 671,
      "##ধান": 672,
      "দেশ": 673,
      "মাঝ": 674,
      "বার": 675,
      "খরি": 676,
      "তর": 677,
      "ম্যা": 678,
      "নিয়া": 679,
      "আছিল": 680,
      "সাই": 681,
      "তোঁ": 682,
      "লাগি": 683,
      "এখটা": 684,
      "হাই": 685,
      "##গ্": 686,
      "গিয়া": 687,
      "আজ": 688,
      "##খে": 689,
      "##বর": 690,
      "নাকি": 691,
      "কত": 692,
      "পি": 693,
      "নিজ": 694,
      "ওর": 695,
      "ক্যা": 696,
      "কেউ": 697,
      "পড়": 698,
      "##স্যা": 699,
      "গাড়ি": 700,
      "তুঁ": 701,
      "ডি": 702,
      "থে": 703,
      "তুমার": 704,
      "##সু": 705,
      "তাইলে": 706,
      "হ্যাঁ": 707,
      "জাম": 708,
      "##হার": 709,
      "##ন্ন": 710,
      "ব্যব": 711,
      "##শন": 712,
      "মার": 713,
      "আম্": 714,
      "খতা": 715,
      "চে": 716,
      "শু": 717,
      "##ডার": 718,
      "##সম": 719,
      "##ছিলাম": 720,
      "সবাই": 721,
      "দাম": 722,
      "ইতে": 723,
      "খারা": 724,
      "তুন": 725,
      "মাছ": 726,
      "##স্ত": 727,
      "ঘর": 728,
      "ছু": 729,
      "##স্থ": 730,
      "##ভাবে": 731,
      "ইয়্য": 732,
      "ধর": 733,
      "##সের": 734,
      "পো": 735,
      "সং": 736,
      "করছে": 737,
      "জা": 738,
      "##চ্চা": 739,
      "##েরা": 740,
      "বান": 741,
      "##ন্না": 742,
      "শা": 743,
      "জীব": 744,
      "##গি": 745,
      "মনো": 746,
      "##লেন": 747,
      "##াকি": 748,
      "জিনি": 749,
      "##স্থা": 750,
      "##্রে": 751,
      "##য়ারে": 752,
      "ইতা": 753,
      "গান": 754,
      "এক্ক": 755,
      "##সার": 756,
      "একটু": 757,
      "আইস": 758,
      "দশ": 759,
      "##ঁচ": 760,
      "থেকে": 761,
      "নায়": 762,
      "আমরার": 763,
      "##পি": 764,
      "##ুরি": 765,
      "মাঝে": 766,
      "##ভি": 767,
      "দিছে": 768,
      "##ফি": 769,
      "চো": 770,
      "##বারে": 771,
      "##দ্দে": 772,
      "পারে": 773,
      "##ধ্যে": 774,
      "##লেই": 775,
      "কাছে": 776,
      "দো": 777,
      "দ্যা": 778,
      "##চ্ছি": 779,
      "##ঙ্গে": 780,
      "ইত": 781,
      "যাও": 782,
      "কম": 783,
      "##তুন": 784,
      "সর": 785,
      "##বের": 786,
      "##্টু": 787,
      "মাম": 788,
      "স্ব": 789,
      "জাগা": 790,
      "##াদের": 791,
      "এব": 792,
      "অর": 793,
      "থাকি": 794,
      "ডা": 795,
      "পারি": 796,
      "যার": 797,
      "রি": 798,
      "##শে": 799,
      "##দ্দ": 800,
      "এডে": 801,
      "##মন্ত্র": 802,
      "কাল": 803,
      "সমস্যা": 804,
      "ইবা": 805,
      "নেই": 806,
      "##ুইন": 807,
      "##ীয়": 808,
      "ছোট": 809,
      "খারাপ": 810,
      "##তর": 811,
      "##পে": 812,
      "উঠ": 813,
      "দেহি": 814,
      "দেখা": 815,
      "##াক্": 816,
      "##ুত": 817,
      "হাজার": 818,
      "এইযে": 819,
      "##ষ্টি": 820,
      "##ত্য": 821,
      "আমাকে": 822,
      "বন্ধু": 823,
      "পে": 824,
      "মতো": 825,
      "##ন্তা": 826,
      "আরো": 827,
      "জিনিস": 828,
      "ঘুম": 829,
      "পানি": 830,
      "ক্ষ": 831,
      "গরে": 832,
      "##ল্প": 833,
      "শুরু": 834,
      "##বাস": 835,
      "হু": 836,
      "এম": 837,
      "আছ": 838,
      "ইতার": 839,
      "রো": 840,
      "##লাস": 841,
      "##ল্লাহ": 842,
      "শুন": 843,
      "##ালাই": 844,
      "হচ্ছে": 845,
      "##য়্যি": 846,
      "##ছন্দ": 847,
      "আইজ": 848,
      "##য়ী": 849,
      "##লিশ": 850,
      "ইবে": 851,
      "ফই": 852,
      "অইলো": 853,
      "গইর": 854,
      "গাছ": 855,
      "কিন": 856,
      "বাইর": 857,
      "সিলে": 858,
      "ট্যা": 859,
      "হাস": 860,
      "তাইন": 861,
      "খাও": 862,
      "পু": 863,
      "বয়": 864,
      "##গুলা": 865,
      "এবং": 866,
      "স্যার": 867,
      "প্রধান": 868,
      "দেও": 869,
      "আমাদের": 870,
      "গ্যা": 871,
      "বিষ": 872,
      "##য়েরে": 873,
      "গেছি": 874,
      "হর": 875,
      "##দু": 876,
      "হইছে": 877,
      "##লু": 878,
      "##সময়": 879,
      "##কম": 880,
      "লোক": 881,
      "চাইর": 882,
      "##জ্ঞা": 883,
      "অন্য": 884,
      "আইচ্ছা": 885,
      "বেয়া": 886,
      "মাইন": 887,
      "##দার": 888,
      "##ক্ষা": 889,
      "ছাই": 890,
      "##পর": 891,
      "অইলে": 892,
      "তোঁয়ার": 893,
      "সম্প": 894,
      "খয়": 895,
      "আব্": 896,
      "উই": 897,
      "##গিন": 898,
      "##যোগ": 899,
      "##্রি": 900,
      "প্রতি": 901,
      "রই": 902,
      "থাই": 903,
      "তুঁই": 904,
      "ফোন": 905,
      "থাকে": 906,
      "##ক্ত": 907,
      "আইছে": 908,
      "##ঞ্জ": 909,
      "অহন": 910,
      "এটা": 911,
      "##শ্": 912,
      "##াগে": 913,
      "আসলে": 914,
      "দিছি": 915,
      "ওক": 916,
      "আরকি": 917,
      "মাইয়া": 918,
      "তই": 919,
      "লি": 920,
      "বিয়ে": 921,
      "খাল": 922,
      "হাম": 923,
      "##ানো": 924,
      "##চ্চ": 925,
      "আরেক": 926,
      "আয়": 927,
      "##বায়": 928,
      "এত": 929,
      "হ্যা": 930,
      "হুন": 931,
      "বাপ": 932,
      "জন": 933,
      "কিলা": 934,
      "##ড়াই": 935,
      "ফারি": 936,
      "##মন্ত্রী": 937,
      "আসে": 938,
      "##ঙ্গা": 939,
      "##টাই": 940,
      "##টো": 941,
      "##ছেন": 942,
      "কাই": 943,
      "ইস্": 944,
      "ছাড়া": 945,
      "##কুল": 946,
      "ভাষ": 947,
      "ভাত": 948,
      "বাড়িত": 949,
      "##ারণ": 950,
      "##ত্তি": 951,
      "হো": 952,
      "##কাল": 953,
      "মেলা": 954,
      "নতুন": 955,
      "##রায়": 956,
      "দেখি": 957,
      "ওয়": 958,
      "চল": 959,
      "চু": 960,
      "অর্": 961,
      "##োইয়ী": 962,
      "জে": 963,
      "খেলা": 964,
      "এট্টা": 965,
      "আঁরা": 966,
      "যেই": 967,
      "যু": 968,
      "##গুন": 969,
      "কেন": 970,
      "টাই": 971,
      "ইটা": 972,
      "ভাব": 973,
      "আসি": 974,
      "##ল্লে": 975,
      "কন": 976,
      "হের": 977,
      "##িনা": 978,
      "দেহ": 979,
      "বউত": 980,
      "এডা": 981,
      "শে": 982,
      "##জ্জি": 983,
      "##ছিল": 984,
      "আফনে": 985,
      "জায়": 986,
      "হাত": 987,
      "##পুর": 988,
      "##জ্জ": 989,
      "সামনে": 990,
      "মাস": 991,
      "সাব": 992,
      "##য়ি": 993,
      "##িকা": 994,
      "##ডিও": 995,
      "টেহা": 996,
      "বাড়ির": 997,
      "আট": 998,
      "গেলে": 999,
      "মেয়ে": 1000,
      "##ডাই": 1001,
      "##খি": 1002,
      "কইর": 1003,
      "##ূর": 1004,
      "যাবে": 1005,
      "##ঁয়া": 1006,
      "বাবা": 1007,
      "অত": 1008,
      "গরম": 1009,
      "অবস্থা": 1010,
      "ছবি": 1011,
      "জামাই": 1012,
      "নয়": 1013,
      "করার": 1014,
      "মধ্যে": 1015,
      "সুম": 1016,
      "##বল": 1017,
      "বেয়াক": 1018,
      "খাম": 1019,
      "##থায়": 1020,
      "##ঞ্চ": 1021,
      "এতো": 1022,
      "##আর": 1023,
      "আঁরে": 1024,
      "কুনু": 1025,
      "রান্": 1026,
      "ইন": 1027,
      "খাওয়া": 1028,
      "খেল": 1029,
      "##বাদ": 1030,
      "কেমন": 1031,
      "##তাছি": 1032,
      "##মার": 1033,
      "এস": 1034,
      "কলে": 1035,
      "পছন্দ": 1036,
      "বাজার": 1037,
      "তখন": 1038,
      "##্যু": 1039,
      "সো": 1040,
      "##ফর": 1041,
      "আপনি": 1042,
      "##চার": 1043,
      "কারণ": 1044,
      "আলা": 1045,
      "চলে": 1046,
      "ভু": 1047,
      "##ানির": 1048,
      "##বাই": 1049,
      "দিকে": 1050,
      "##ক্তি": 1051,
      "##ানের": 1052,
      "##্যাল": 1053,
      "করছি": 1054,
      "##োনা": 1055,
      "##ারো": 1056,
      "##ত্তা": 1057,
      "মুখ": 1058,
      "মজা": 1059,
      "##বাইল": 1060,
      "আরও": 1061,
      "সহ": 1062,
      "বাদ": 1063,
      "ওইছে": 1064,
      "খরদে": 1065,
      "##ন্দি": 1066,
      "তারফরে": 1067,
      "##নু": 1068,
      "##রিয়": 1069,
      "হইলো": 1070,
      "##পার": 1071,
      "মত": 1072,
      "ইতি": 1073,
      "##কালে": 1074,
      "ছেলে": 1075,
      "##ট্টা": 1076,
      "ফড়": 1077,
      "##ন্নে": 1078,
      "এবার": 1079,
      "##খার": 1080,
      "অইবো": 1081,
      "বহ": 1082,
      "এমন": 1083,
      "আল": 1084,
      "##ধ্য": 1085,
      "থাহে": 1086,
      "##িত": 1087,
      "দেহা": 1088,
      "ওউ": 1089,
      "একজন": 1090,
      "আল্লাহ": 1091,
      "##ধা": 1092,
      "কইছে": 1093,
      "##ল্লাই": 1094,
      "জীবন": 1095,
      "প্রধানমন্ত্রী": 1096,
      "আপনার": 1097,
      "##ৃষ্টি": 1098,
      "বাসা": 1099,
      "টাহা": 1100,
      "যারা": 1101,
      "ওয়া": 1102,
      "আইয়া": 1103,
      "জমি": 1104,
      "দিতে": 1105,
      "চিন্তা": 1106,
      "দরকার": 1107,
      "##ওয়ার": 1108,
      "##ড্": 1109,
      "করেন": 1110,
      "##টের": 1111,
      "প্রে": 1112,
      "##কের": 1113,
      "##য়েনে": 1114,
      "##োনো": 1115,
      "নিজের": 1116,
      "ফো": 1117,
      "ওইযে": 1118,
      "কইরে": 1119,
      "রাস্তা": 1120,
      "সত্য": 1121,
      "এহ": 1122,
      "##ছইন": 1123,
      "খায়": 1124,
      "ডে": 1125,
      "ফারে": 1126,
      "কষ্ট": 1127,
      "##্লা": 1128,
      "##ূর্": 1129,
      "##সিটি": 1130,
      "অউ": 1131,
      "##শ্য": 1132,
      "ক্লাস": 1133,
      "ছয়": 1134,
      "##ভে": 1135,
      "লাগবো": 1136,
      "কলেজ": 1137,
      "জানে": 1138,
      "খইরা": 1139,
      "চই": 1140,
      "ইয়্যিন": 1141,
      "এট্টু": 1142,
      "নো": 1143,
      "বাস": 1144,
      "অ্যাঁই": 1145,
      "বয়স": 1146,
      "ইচ্ছা": 1147,
      "##ত্ব": 1148,
      "##পরে": 1149,
      "##ফা": 1150,
      "দিলে": 1151,
      "দয়া": 1152,
      "অইয়া": 1153,
      "সম্পর্": 1154,
      "উগ": 1155,
      "মাল": 1156,
      "বাদে": 1157,
      "##ছোইন": 1158,
      "কিচ্": 1159,
      "ফুল": 1160,
      "##্রা": 1161,
      "##ক্ট": 1162,
      "তারার": 1163,
      "অ্যাঁর": 1164,
      "##দ্র": 1165,
      "দেওয়া": 1166,
      "ইউ": 1167,
      "##স্তে": 1168,
      "মাত": 1169,
      "মাথা": 1170,
      "আফনার": 1171,
      "এক্কান": 1172,
      "পাঁচ": 1173,
      "আঁরার": 1174,
      "নিজে": 1175,
      "ফোয়া": 1176,
      "মাইনষ": 1177,
      "##মের": 1178,
      "ভাষা": 1179,
      "একদিন": 1180,
      "খো": 1181,
      "নাগ": 1182,
      "লাগছে": 1183,
      "কারে": 1184,
      "লাল": 1185,
      "##ক্স": 1186,
      "তোরে": 1187,
      "কইছি": 1188,
      "আছিলো": 1189,
      "বন্দ": 1190,
      "বাইরে": 1191,
      "রাজ": 1192,
      "জানো": 1193,
      "আচ্ছা": 1194,
      "মিনি": 1195,
      "##তির": 1196,
      "##ান্ত": 1197,
      "##ডু": 1198,
      "বিষয়": 1199,
      "ওকগো": 1200,
      "বিশ্": 1201,
      "তহন": 1202,
      "বলতে": 1203,
      "##ডো": 1204,
      "##ঠা": 1205,
      "##কেট": 1206,
      "খরে": 1207,
      "বর্": 1208,
      "বুই": 1209,
      "##দর": 1210,
      "##য়ন": 1211,
      "##টায়": 1212,
      "##াকরি": 1213,
      "যেন": 1214,
      "আজি": 1215,
      "##ধু": 1216,
      "ভালোবা": 1217,
      "ইতারা": 1218,
      "পড়া": 1219,
      "বানাই": 1220,
      "কিচ্ছু": 1221,
      "##ভব": 1222,
      "##ফে": 1223,
      "##তেই": 1224,
      "একটি": 1225,
      "অসু": 1226,
      "হেয়": 1227,
      "নান": 1228,
      "চায়": 1229,
      "ধই": 1230,
      "লাগবে": 1231,
      "জু": 1232,
      "শর": 1233,
      "##দী": 1234,
      "##ওই": 1235,
      "ঢাকা": 1236,
      "##লেও": 1237,
      "খরা": 1238,
      "বইয়া": 1239,
      "##চিত": 1240,
      "শেখ": 1241,
      "বহুত": 1242,
      "উগগো": 1243,
      "পড়ে": 1244,
      "##দো": 1245,
      "দেখতে": 1246,
      "##্ম": 1247,
      "তোমরা": 1248,
      "কল": 1249,
      "গেলো": 1250,
      "খইর": 1251,
      "এন": 1252,
      "মায়": 1253,
      "##কর": 1254,
      "সাত": 1255,
      "##কারি": 1256,
      "##ডাম": 1257,
      "ওইলো": 1258,
      "খাবার": 1259,
      "খবর": 1260,
      "##হান": 1261,
      "##ার্সিটি": 1262,
      "আছিন": 1263,
      "আস্তে": 1264,
      "তিনি": 1265,
      "দেছে": 1266,
      "দের": 1267,
      "ফির": 1268,
      "বিদেশ": 1269,
      "খালা": 1270,
      "দেক": 1271,
      "##ুরো": 1272,
      "তাম": 1273,
      "##ুনি": 1274,
      "টেঁয়া": 1275,
      "ধান": 1276,
      "##তিক": 1277,
      "তারে": 1278,
      "বারো": 1279,
      "চোখ": 1280,
      "লয়": 1281,
      "##মনে": 1282,
      "বিশ্ব": 1283,
      "##বী": 1284,
      "তাকি": 1285,
      "ফানি": 1286,
      "##য়্যা": 1287,
      "মারা": 1288,
      "তুল": 1289,
      "কতো": 1290,
      "##তায়": 1291,
      "ফালাই": 1292,
      "##তন": 1293,
      "##সো": 1294,
      "আমাগে": 1295,
      "বাইত": 1296,
      "অ্যা": 1297,
      "##সর": 1298,
      "যাইবো": 1299,
      "##খানে": 1300,
      "নির্": 1301,
      "তোমারে": 1302,
      "ফুট": 1303,
      "মানুষের": 1304,
      "##লর": 1305,
      "এরফরে": 1306,
      "গরু": 1307,
      "পই": 1308,
      "আইচ্চা": 1309,
      "দেখে": 1310,
      "সঙ্গে": 1311,
      "##গই": 1312,
      "##রিয়া": 1313,
      "বেডা": 1314,
      "সারা": 1315,
      "##রিশ": 1316,
      "তারপরে": 1317,
      "ফাল": 1318,
      "##তম": 1319,
      "##কেল": 1320,
      "খুশি": 1321,
      "ভিডিও": 1322,
      "##মো": 1323,
      "নানি": 1324,
      "বাড়": 1325,
      "যাবো": 1326,
      "এও": 1327,
      "চাকরি": 1328,
      "##থর": 1329,
      "যাইতে": 1330,
      "অবশ্য": 1331,
      "আজকে": 1332,
      "আলাদা": 1333,
      "কোইয়ী": 1334,
      "তাও": 1335,
      "##্যন্ত": 1336,
      "হিসা": 1337,
      "কও": 1338,
      "মারে": 1339,
      "যাওয়া": 1340,
      "##ুষ্": 1341,
      "হয়েছে": 1342,
      "হার": 1343,
      "ঘট": 1344,
      "চার": 1345,
      "স্ট": 1346,
      "টেখা": 1347,
      "আগের": 1348,
      "চলি": 1349,
      "##দ্দি": 1350,
      "কচ্ছে": 1351,
      "বুজ": 1352,
      "ঘা": 1353,
      "উনি": 1354,
      "##তরে": 1355,
      "##ীল": 1356,
      "##মুন": 1357,
      "##দ্যে": 1358,
      "##ুরে": 1359,
      "ইতের": 1360,
      "##্যানে": 1361,
      "গম": 1362,
      "মারি": 1363,
      "কইলাম": 1364,
      "থুই": 1365,
      "##চু": 1366,
      "##োর্ট": 1367,
      "পায়": 1368,
      "বান্": 1369,
      "বির": 1370,
      "করবে": 1371,
      "ওহ": 1372,
      "##ত্তো": 1373,
      "রইছে": 1374,
      "যখন": 1375,
      "কির": 1376,
      "ওরে": 1377,
      "জন্": 1378,
      "ভে": 1379,
      "এসে": 1380,
      "টু": 1381,
      "সমা": 1382,
      "প্রিয়": 1383,
      "দাঁ": 1384,
      "##্রাম": 1385,
      "আইছি": 1386,
      "অইয়্যে": 1387,
      "##ান্তি": 1388,
      "লাভ": 1389,
      "মইদ্দে": 1390,
      "দোক": 1391,
      "রু": 1392,
      "##াইছে": 1393,
      "##য়্যুম": 1394,
      "বৃষ্টি": 1395,
      "##য্য": 1396,
      "আইন": 1397,
      "অইব": 1398,
      "অখন": 1399,
      "জায়গা": 1400,
      "##ড্ডা": 1401,
      "##ছস": 1402,
      "##ামে": 1403,
      "লাইগ": 1404,
      "মোরে": 1405,
      "বুঝি": 1406,
      "বর": 1407,
      "##টামু": 1408,
      "ভুল": 1409,
      "মোবাইল": 1410,
      "##্যারে": 1411,
      "করলে": 1412,
      "বাসাত": 1413,
      "ইয়ে": 1414,
      "##াগল": 1415,
      "কাঁ": 1416,
      "##ক্ষণ": 1417,
      "##টামুটি": 1418,
      "জ্ব": 1419,
      "##ীন": 1420,
      "##হর": 1421,
      "##জের": 1422,
      "বিয়ার": 1423,
      "##জ্জা": 1424,
      "অনু": 1425,
      "যত": 1426,
      "হাল": 1427,
      "##কর্": 1428,
      "##ন্ডি": 1429,
      "সিলেট": 1430,
      "##হানে": 1431,
      "দৌ": 1432,
      "##ণ্": 1433,
      "ক্যান": 1434,
      "##তীয়": 1435,
      "##য়েক": 1436,
      "##টির": 1437,
      "গেলাম": 1438,
      "লাইজ্ঞা": 1439,
      "##েষ্টা": 1440,
      "যাওয়ার": 1441,
      "লাইন": 1442,
      "##শু": 1443,
      "##থম": 1444,
      "দিলাম": 1445,
      "ছিল": 1446,
      "ডাক": 1447,
      "##াইতে": 1448,
      "##ুনা": 1449,
      "যাইয়া": 1450,
      "ফইর": 1451,
      "বিশ্বাস": 1452,
      "ইয়ার": 1453,
      "জো": 1454,
      "ফার্": 1455,
      "ট্যাহা": 1456,
      "পার্": 1457,
      "##ছিস": 1458,
      "একবার": 1459,
      "খেউ": 1460,
      "ডাক্": 1461,
      "তারপর": 1462,
      "হইয়া": 1463,
      "আফনের": 1464,
      "জ্": 1465,
      "##উক্কা": 1466,
      "বেলা": 1467,
      "##মেন্ট": 1468,
      "ছেলো": 1469,
      "ইয়ো": 1470,
      "হতা": 1471,
      "উন্ন": 1472,
      "এম্": 1473,
      "হলো": 1474,
      "##এস": 1475,
      "জন্যে": 1476,
      "আজার": 1477,
      "গত": 1478,
      "##য়ুম": 1479,
      "অইল": 1480,
      "গেইয়্যে": 1481,
      "মামা": 1482,
      "বের": 1483,
      "##ট্ট": 1484,
      "##উক": 1485,
      "নাহ": 1486,
      "হাসি": 1487,
      "##ভাব": 1488,
      "##ত্তর": 1489,
      "সত্যি": 1490,
      "ফড়া": 1491,
      "ইক": 1492,
      "এরি": 1493,
      "##ছুই": 1494,
      "##ন্টা": 1495,
      "করবো": 1496,
      "খাইয়া": 1497,
      "যি": 1498,
      "যাচ্ছে": 1499,
      "এনে": 1500,
      "কাইল": 1501,
      "মুর": 1502,
      "বাফ": 1503,
      "##সেন": 1504,
      "আপন": 1505,
      "দিবো": 1506,
      "##ছিলো": 1507,
      "খইলাম": 1508,
      "##খানো": 1509,
      "ম্যালা": 1510,
      "দাওয়া": 1511,
      "তাহ": 1512,
      "এগ": 1513,
      "খথা": 1514,
      "ফরা": 1515,
      "##পো": 1516,
      "##ঁই": 1517,
      "একা": 1518,
      "রাইত": 1519,
      "কবি": 1520,
      "##য়র": 1521,
      "খাইতে": 1522,
      "##ক্ষে": 1523,
      "ফুরি": 1524,
      "গইজ্জি": 1525,
      "ঘুর": 1526,
      "তি": 1527,
      "বিদ": 1528,
      "আম্মু": 1529,
      "এরা": 1530,
      "বৈ": 1531,
      "##ন্দে": 1532,
      "##্রাই": 1533,
      "##ক্কে": 1534,
      "বেই": 1535,
      "##ত্রে": 1536,
      "##ডের": 1537,
      "ব্যবসা": 1538,
      "চেষ্টা": 1539,
      "##হিন": 1540,
      "বাজ": 1541,
      "বাগ": 1542,
      "হইয়ে": 1543,
      "##ভার": 1544,
      "##ংশ": 1545,
      "সাহে": 1546,
      "ফ্যা": 1547,
      "##্যান্": 1548,
      "##ামু": 1549,
      "আঁআর": 1550,
      "পোলা": 1551,
      "সংসার": 1552,
      "খি": 1553,
      "##শার": 1554,
      "কাপ": 1555,
      "ভাল্লা": 1556,
      "মাইর": 1557,
      "তামান্": 1558,
      "টিক": 1559,
      "ধরি": 1560,
      "রাগ": 1561,
      "রুম": 1562,
      "##সল": 1563,
      "##ন্দা": 1564,
      "বাংলাদেশের": 1565,
      "ক্ষে": 1566,
      "তবে": 1567,
      "শান্তি": 1568,
      "কিনা": 1569,
      "আরা": 1570,
      "ইবার": 1571,
      "রান": 1572,
      "এইতা": 1573,
      "এখানে": 1574,
      "খান": 1575,
      "বলি": 1576,
      "ভাগ": 1577,
      "করব": 1578,
      "##দিক": 1579,
      "যাইয়ে": 1580,
      "সাহা": 1581,
      "ইট": 1582,
      "ইয়্যে": 1583,
      "রহ": 1584,
      "##্বার": 1585,
      "##খ্যা": 1586,
      "কোথায়": 1587,
      "আহ": 1588,
      "গ্র": 1589,
      "##তারি": 1590,
      "##নারে": 1591,
      "##ষ্ট্র": 1592,
      "##দ্ধি": 1593,
      "ঘরে": 1594,
      "##ঁর": 1595,
      "বাজে": 1596,
      "##ামী": 1597,
      "তোমাকে": 1598,
      "##ক্কল": 1599,
      "ঢাক": 1600,
      "##ফোয়া": 1601,
      "বলেন": 1602,
      "এনো": 1603,
      "গ্রাম": 1604,
      "##গর": 1605,
      "পরিবার": 1606,
      "দেশের": 1607,
      "আন্": 1608,
      "হেরা": 1609,
      "##সব": 1610,
      "গরের": 1611,
      "ছুডু": 1612,
      "টাইম": 1613,
      "নষ্ট": 1614,
      "দেখছি": 1615,
      "স্কুল": 1616,
      "বললাম": 1617,
      "এক্কানা": 1618,
      "##্থ": 1619,
      "গরন": 1620,
      "অর্থ": 1621,
      "অবে": 1622,
      "মর": 1623,
      "হাতে": 1624,
      "স্থ": 1625,
      "বইন": 1626,
      "কয়ডা": 1627,
      "ইডা": 1628,
      "তালি": 1629,
      "##ীতি": 1630,
      "##য়াল": 1631,
      "##লাত": 1632,
      "আত": 1633,
      "গেল": 1634,
      "রং": 1635,
      "এইগিন": 1636,
      "##টিং": 1637,
      "সাতে": 1638,
      "##জ্জে": 1639,
      "নামা": 1640,
      "তেল": 1641,
      "##ম্প": 1642,
      "ছিলো": 1643,
      "সরকার": 1644,
      "রান্না": 1645,
      "##ওর": 1646,
      "##স্টে": 1647,
      "বুলে": 1648,
      "খরিয়া": 1649,
      "তুঁর": 1650,
      "ইগু": 1651,
      "এখটু": 1652,
      "অফি": 1653,
      "ইয়ান": 1654,
      "জাগ": 1655,
      "দাও": 1656,
      "##ুস": 1657,
      "যেমন": 1658,
      "হাঁ": 1659,
      "বাড়িতে": 1660,
      "ম্যাডাম": 1661,
      "##হাম": 1662,
      "দিমু": 1663,
      "আমিও": 1664,
      "কেডা": 1665,
      "খুবই": 1666,
      "ফরিক্কা": 1667,
      "ইং": 1668,
      "মরি": 1669,
      "খইলা": 1670,
      "থাকতে": 1671,
      "তাদের": 1672,
      "ইস্কুল": 1673,
      "ইয়্যেন": 1674,
      "হইবে": 1675,
      "##দ্দা": 1676,
      "দুইডা": 1677,
      "জীবনে": 1678,
      "ওসি": 1679,
      "কান": 1680,
      "##খল": 1681,
      "দিতাম": 1682,
      "ঘটনা": 1683,
      "ডর": 1684,
      "যহন": 1685,
      "ডাক্তার": 1686,
      "আনি": 1687,
      "ইস": 1688,
      "কয়েক": 1689,
      "তাকে": 1690,
      "##য়াম": 1691,
      "একশো": 1692,
      "##ায়ি": 1693,
      "থাকলে": 1694,
      "থাখ": 1695,
      "ডাই": 1696,
      "##গাই": 1697,
      "কিল্লাই": 1698,
      "আইসে": 1699,
      "ফুরা": 1700,
      "পর্যন্ত": 1701,
      "লেখা": 1702,
      "অচ্ছে": 1703,
      "হথা": 1704,
      "##গঞ্জ": 1705,
      "##জনে": 1706,
      "আউ": 1707,
      "পাওয়া": 1708,
      "##জর": 1709,
      "মনত": 1710,
      "গিয়ি": 1711,
      "খালু": 1712,
      "##ুষ্ঠ": 1713,
      "সাহায্য": 1714,
      "অঙ্গে": 1715,
      "হয়া": 1716,
      "##ফার": 1717,
      "##্যি": 1718,
      "নামে": 1719,
      "গল্প": 1720,
      "##কাশ": 1721,
      "সবচে": 1722,
      "টেকা": 1723,
      "মিনিট": 1724,
      "হোই": 1725,
      "##যু": 1726,
      "দেয়া": 1727,
      "নিছে": 1728,
      "কাছ": 1729,
      "ইয়্যান": 1730,
      "##্রেন্ড": 1731,
      "##ূর্ণ": 1732,
      "হোক": 1733,
      "##ফো": 1734,
      "তোরা": 1735,
      "##্যাক": 1736,
      "##বেলা": 1737,
      "ভাড়া": 1738,
      "মোগো": 1739,
      "অপ": 1740,
      "##ছলাম": 1741,
      "##খটা": 1742,
      "##ষণ": 1743,
      "##ন্স": 1744,
      "গাই": 1745,
      "মন্ত্র": 1746,
      "##ূল": 1747,
      "বাঁ": 1748,
      "দিতি": 1749,
      "অবশ্যই": 1750,
      "অইতো": 1751,
      "ভদ্র": 1752,
      "রঙ": 1753,
      "##োল": 1754,
      "##দন": 1755,
      "##জুম": 1756,
      "সবসময়": 1757,
      "সম্ভব": 1758,
      "এমনে": 1759,
      "হামার": 1760,
      "ভো": 1761,
      "##ীত": 1762,
      "গিয়ে": 1763,
      "ভর্": 1764,
      "##দম": 1765,
      "##লোর": 1766,
      "বড়ো": 1767,
      "##পাতা": 1768,
      "মাসে": 1769,
      "দোকান": 1770,
      "##রকম": 1771,
      "কাট": 1772,
      "ইস্কু": 1773,
      "থিকা": 1774,
      "বেশ": 1775,
      "##দিকে": 1776,
      "রাজি": 1777,
      "খারণ": 1778,
      "তরে": 1779,
      "বাল": 1780,
      "বাক্কা": 1781,
      "অল": 1782,
      "কচ্ছি": 1783,
      "ঝামে": 1784,
      "দূ": 1785,
      "##থি": 1786,
      "##ল্লিশ": 1787,
      "যাইতো": 1788,
      "যাইতাম": 1789,
      "খরচ": 1790,
      "বোঝ": 1791,
      "বাসায়": 1792,
      "##ড়ায়": 1793,
      "##স্ক": 1794,
      "##ন্টার": 1795,
      "শুধু": 1796,
      "বন্দু": 1797,
      "হন": 1798,
      "বাতা": 1799,
      "হইলে": 1800,
      "খুঁ": 1801,
      "লাখ": 1802,
      "ব্যবস্থা": 1803,
      "কঠ": 1804,
      "তাক": 1805,
      "ধার": 1806,
      "ধরে": 1807,
      "গেয়া": 1808,
      "##ডিং": 1809,
      "খেনে": 1810,
      "আল্লা": 1811,
      "দল": 1812,
      "বস": 1813,
      "হোইয়ী": 1814,
      "##বন": 1815,
      "##কান": 1816,
      "##স্তি": 1817,
      "##ল্ল": 1818,
      "সবার": 1819,
      "##তারে": 1820,
      "যাইবে": 1821,
      "কারেন্ট": 1822,
      "ফুটবল": 1823,
      "খোনো": 1824,
      "পয়": 1825,
      "পড়ি": 1826,
      "শব্": 1827,
      "##্রম": 1828,
      "বলল": 1829,
      "অভি": 1830,
      "এউক্কা": 1831,
      "ওরা": 1832,
      "পুর": 1833,
      "ভয়": 1834,
      "##গার": 1835,
      "বাট": 1836,
      "মাজে": 1837,
      "মোক": 1838,
      "##ঙ্গি": 1839,
      "উপর": 1840,
      "আব্বা": 1841,
      "খও": 1842,
      "গুরু": 1843,
      "চিন": 1844,
      "পাল": 1845,
      "হোন": 1846,
      "দিয়্যে": 1847,
      "##লিক": 1848,
      "স্বা": 1849,
      "ফুয়া": 1850,
      "হিমু": 1851,
      "অতো": 1852,
      "উজ্ঞ": 1853,
      "দুর": 1854,
      "সৌ": 1855,
      "##গুল": 1856,
      "##টিক": 1857,
      "তারি": 1858,
      "কেলা": 1859,
      "নাম্বার": 1860,
      "ইতারার": 1861,
      "ফল": 1862,
      "##বর্": 1863,
      "##জনের": 1864,
      "বাজি": 1865,
      "এইল্লা": 1866,
      "ওইয়ে": 1867,
      "##লির": 1868,
      "লাগের": 1869,
      "শিক্ষ": 1870,
      "বসে": 1871,
      "বালো": 1872,
      "দিব": 1873,
      "শাড়ি": 1874,
      "সবচেয়ে": 1875,
      "##ংস": 1876,
      "##অর": 1877,
      "দেবে": 1878,
      "##চ্ছ": 1879,
      "##বিদ": 1880,
      "খরছি": 1881,
      "##ব্বি": 1882,
      "কবে": 1883,
      "ফয়": 1884,
      "খইন": 1885,
      "খরছে": 1886,
      "##ার্ড": 1887,
      "লাইগা": 1888,
      "##হেতু": 1889,
      "জন্ম": 1890,
      "অহ": 1891,
      "জল": 1892,
      "টিয়া": 1893,
      "ফ্র": 1894,
      "##যা": 1895,
      "##গারে": 1896,
      "##পতি": 1897,
      "যাইব": 1898,
      "পাশ": 1899,
      "মইধ্যে": 1900,
      "ব্যবহার": 1901,
      "আলো": 1902,
      "সকালে": 1903,
      "##গের": 1904,
      "##জাল": 1905,
      "তোয়ার": 1906,
      "ভাবি": 1907,
      "খরতে": 1908,
      "দুইটা": 1909,
      "দোষ": 1910,
      "স্বপ্": 1911,
      "চইলে": 1912,
      "দেরি": 1913,
      "ধারে": 1914,
      "##পোর্ট": 1915,
      "এইটা": 1916,
      "বিভি": 1917,
      "হাসপাতা": 1918,
      "বিভিন্ন": 1919,
      "অভ": 1920,
      "আশা": 1921,
      "চ্যাঁ": 1922,
      "পাও": 1923,
      "##তিছে": 1924,
      "অলো": 1925,
      "কেরে": 1926,
      "ঘো": 1927,
      "চুরি": 1928,
      "ধরা": 1929,
      "##তাইন": 1930,
      "##কল": 1931,
      "##উম": 1932,
      "কিছুই": 1933,
      "হইতে": 1934,
      "ভাবে": 1935,
      "কেজি": 1936,
      "প্রথম": 1937,
      "খাওয়াই": 1938,
      "সম্পর্ক": 1939,
      "সাহেব": 1940,
      "শুক": 1941,
      "##পের": 1942,
      "কেমনে": 1943,
      "ভিতরে": 1944,
      "বোথ": 1945,
      "চ্যাঁই": 1946,
      "নদী": 1947,
      "##গায়": 1948,
      "##ংক": 1949,
      "কিনি": 1950,
      "টেলি": 1951,
      "মোটামুটি": 1952,
      "##প্তা": 1953,
      "ভাল্লাগে": 1954,
      "খম": 1955,
      "খুল": 1956,
      "ফায়": 1957,
      "লাগব": 1958,
      "সাড়ে": 1959,
      "দুইজন": 1960,
      "ইন্ডি": 1961,
      "##বাড়ি": 1962,
      "পাথর": 1963,
      "##টুক": 1964,
      "ফেল": 1965,
      "##য়োজন": 1966,
      "জাগাত": 1967,
      "উদ্": 1968,
      "ত্থ": 1969,
      "নর": 1970,
      "##ধে": 1971,
      "দিক": 1972,
      "বিশেষ": 1973,
      "ঢুক": 1974,
      "নোয়া": 1975,
      "মস": 1976,
      "##ডারে": 1977,
      "##ছছ": 1978,
      "##বেশ": 1979,
      "আজিয়ে": 1980,
      "লন্ড": 1981,
      "##বান": 1982,
      "##কির": 1983,
      "ফেলাই": 1984,
      "সম্পর্কে": 1985,
      "চুল": 1986,
      "##নর": 1987,
      "##উর": 1988,
      "মাতা": 1989,
      "##চাশ": 1990,
      "বেয়াকগুন": 1991,
      "ঢা": 1992,
      "মদ্যে": 1993,
      "লার": 1994,
      "##চয়": 1995,
      "দিলি": 1996,
      "একে": 1997,
      "যেহেতু": 1998,
      "হইল": 1999,
      "পাঠ": 2000,
      "ছাড়": 2001,
      "প্রায়": 2002,
      "থাইক": 2003,
      "এন্নে": 2004,
      "##কাম": 2005,
      "##ফোন": 2006,
      "কর্ম": 2007,
      "##কিছু": 2008,
      "স্থান": 2009,
      "কঠিন": 2010,
      "ইলা": 2011,
      "চিনি": 2012,
      "মার্": 2013,
      "লু": 2014,
      "##এই": 2015,
      "দিয়্যি": 2016,
      "কইতে": 2017,
      "লাগিয়া": 2018,
      "তুমারে": 2019,
      "কয়দিন": 2020,
      "জানা": 2021,
      "ঠে": 2022,
      "##মর": 2023,
      "##ানোর": 2024,
      "##তোর": 2025,
      "##ব্ব": 2026,
      "তুলি": 2027,
      "দুন": 2028,
      "##ার্থ": 2029,
      "ব্যাঙ": 2030,
      "পরের": 2031,
      "হিসে": 2032,
      "ইতারে": 2033,
      "কোই": 2034,
      "হারা": 2035,
      "##য়ানে": 2036,
      "আমনের": 2037,
      "অনুষ্ঠ": 2038,
      "গ্যাছে": 2039,
      "অস": 2040,
      "আছো": 2041,
      "##চো": 2042,
      "##ড়ো": 2043,
      "যাতে": 2044,
      "গেছেগা": 2045,
      "##গুলো": 2046,
      "হেইডা": 2047,
      "শিখ": 2048,
      "রাখি": 2049,
      "আরেকটা": 2050,
      "ঝামেলা": 2051,
      "দূর": 2052,
      "যো": 2053,
      "##হাই": 2054,
      "##ছের": 2055,
      "একবারে": 2056,
      "কাউ": 2057,
      "##সিং": 2058,
      "##ঞ্চাশ": 2059,
      "জামা": 2060,
      "পুলিশ": 2061,
      "##ুন্": 2062,
      "##সির": 2063,
      "##মালা": 2064,
      "মনয়": 2065,
      "ঘরের": 2066,
      "ম্যানে": 2067,
      "##টন": 2068,
      "##ছুইন": 2069,
      "কিসু": 2070,
      "আইলে": 2071,
      "তোঁয়ারে": 2072,
      "ল্যা": 2073,
      "##য়ত": 2074,
      "ওগে": 2075,
      "খার": 2076,
      "খুই": 2077,
      "হল": 2078,
      "##ীক্ষা": 2079,
      "##ুরা": 2080,
      "কইয়া": 2081,
      "যাব": 2082,
      "গিয়্যে": 2083,
      "আব": 2084,
      "বদ": 2085,
      "হেরে": 2086,
      "##োত": 2087,
      "##গোর": 2088,
      "##রিক": 2089,
      "প্রা": 2090,
      "থাহি": 2091,
      "আনন্দ": 2092,
      "কম্": 2093,
      "ঘুরি": 2094,
      "চাল": 2095,
      "টান": 2096,
      "তৈ": 2097,
      "ফুন": 2098,
      "লো": 2099,
      "সার্": 2100,
      "সকাল": 2101,
      "##টক": 2102,
      "##ষু": 2103,
      "দিও": 2104,
      "##ছিন": 2105,
      "##ামি": 2106,
      "রাজা": 2107,
      "ঢু": 2108,
      "হ্যার": 2109,
      "##ফাই": 2110,
      "##্যাই": 2111,
      "##য়্যার": 2112,
      "রাজন": 2113,
      "সুযোগ": 2114,
      "নামাজ": 2115,
      "ভর্তি": 2116,
      "টাক": 2117,
      "মধ্য": 2118,
      "হত": 2119,
      "##গল": 2120,
      "নিশ্": 2121,
      "লাখান": 2122,
      "কালকে": 2123,
      "যুদি": 2124,
      "বলো": 2125,
      "সার": 2126,
      "##ইবা": 2127,
      "বিল": 2128,
      "##োনি": 2129,
      "##ত্ম": 2130,
      "রাষ্ট্র": 2131,
      "অবস্তা": 2132,
      "ফরের": 2133,
      "তাহলে": 2134,
      "শব্দ": 2135,
      "ভার": 2136,
      "সর্": 2137,
      "##হো": 2138,
      "##আই": 2139,
      "##দির": 2140,
      "খরার": 2141,
      "হাসিনা": 2142,
      "খয়দে": 2143,
      "আও": 2144,
      "আওয়া": 2145,
      "ঘুই": 2146,
      "##্বি": 2147,
      "##াত": 2148,
      "##ধারণ": 2149,
      "বাকি": 2150,
      "দিবে": 2151,
      "খরতাম": 2152,
      "তাড়া": 2153,
      "##প্ত": 2154,
      "আগুন": 2155,
      "চুপ": 2156,
      "ইউনি": 2157,
      "নির্বা": 2158,
      "ওতো": 2159,
      "##ভাগ": 2160,
      "##ধি": 2161,
      "##্যের": 2162,
      "##ন্তে": 2163,
      "দেন": 2164,
      "যাইবু": 2165,
      "##র্ম": 2166,
      "মিষ্টি": 2167,
      "সিলেটি": 2168,
      "ত্থুন্": 2169,
      "জাই": 2170,
      "একনা": 2171,
      "##্রহ": 2172,
      "বুদ্ধি": 2173,
      "সেটা": 2174,
      "সিগারে": 2175,
      "আইসসি": 2176,
      "তারিখ": 2177,
      "খত": 2178,
      "ঠিকা": 2179,
      "হলে": 2180,
      "##্ল": 2181,
      "##সিক": 2182,
      "দেখলাম": 2183,
      "যাচ্ছি": 2184,
      "ছাত্র": 2185,
      "##ত্তুন": 2186,
      "দেওয়ার": 2187,
      "স্বপ্ন": 2188,
      "কান্": 2189,
      "গোই": 2190,
      "##্টি": 2191,
      "##দুর": 2192,
      "##অল": 2193,
      "##বিধা": 2194,
      "##নির": 2195,
      "অনেখ": 2196,
      "##ডেন্ট": 2197,
      "বললেন": 2198,
      "ক্রি": 2199,
      "মসজি": 2200,
      "##ড়ার": 2201,
      "বিমান": 2202,
      "মাস্ট": 2203,
      "বেচ": 2204,
      "নিয়": 2205,
      "তাখ": 2206,
      "চেয়ে": 2207,
      "এসব": 2208,
      "মাইনষে": 2209,
      "হিসাবে": 2210,
      "ফড়ি": 2211,
      "##কায়": 2212,
      "##পাল": 2213,
      "##খম": 2214,
      "গরিবু": 2215,
      "দুঃ": 2216,
      "রাইতে": 2217,
      "আরি": 2218,
      "আন্ত": 2219,
      "মিয়া": 2220,
      "##রারে": 2221,
      "ওইতো": 2222,
      "##েইন": 2223,
      "প্রত": 2224,
      "সুখ": 2225,
      "সুমা": 2226,
      "কের": 2227,
      "থি": 2228,
      "দায়ি": 2229,
      "সাল": 2230,
      "আমনে": 2231,
      "অনর": 2232,
      "অসুস্থ": 2233,
      "ওখন": 2234,
      "ঘন্টা": 2235,
      "দন": 2236,
      "দোয়া": 2237,
      "##বুল": 2238,
      "##ঠি": 2239,
      "বাবার": 2240,
      "যেটা": 2241,
      "তারফর": 2242,
      "সালাম": 2243,
      "##ম্বা": 2244,
      "এগারো": 2245,
      "এটি": 2246,
      "ওটা": 2247,
      "ভূ": 2248,
      "##ৃতি": 2249,
      "বাচ্চা": 2250,
      "##ল্লি": 2251,
      "যাবি": 2252,
      "গাছে": 2253,
      "ভালোই": 2254,
      "##ার্স": 2255,
      "মোরা": 2256,
      "ছাড়ি": 2257,
      "দুধ": 2258,
      "বাতাস": 2259,
      "গলায়": 2260,
      "দ্বি": 2261,
      "মূল": 2262,
      "##নায়": 2263,
      "##থার": 2264,
      "##বাজার": 2265,
      "ব্যাপার": 2266,
      "উর": 2267,
      "সন্ধ": 2268,
      "##টারে": 2269,
      "##দায়": 2270,
      "##কো": 2271,
      "##ন্ডে": 2272,
      "দিতো": 2273,
      "যেতে": 2274,
      "##ামা": 2275,
      "##ান্ডা": 2276,
      "বাংলাদেশে": 2277,
      "সরকারি": 2278,
      "আয়া": 2279,
      "শহর": 2280,
      "##ডায়": 2281,
      "করবেন": 2282,
      "বেমালা": 2283,
      "হইসে": 2284,
      "এখনো": 2285,
      "যায়া": 2286,
      "##গাযোগ": 2287,
      "খরোইন": 2288,
      "বুঝতে": 2289,
      "দরজা": 2290,
      "এমনি": 2291,
      "খোঁ": 2292,
      "হিসাব": 2293,
      "উজ্ঞো": 2294,
      "ভার্সিটি": 2295,
      "মণ": 2296,
      "##লাইন": 2297,
      "##বন্ধ": 2298,
      "##হু": 2299,
      "##হের": 2300,
      "##বাব": 2301,
      "##ন্দ্র": 2302,
      "হ্যায়": 2303,
      "ম্যানেজার": 2304,
      "অতি": 2305,
      "চ্যা": 2306,
      "বারি": 2307,
      "##হায়": 2308,
      "##ষা": 2309,
      "দিবার": 2310,
      "হাজ": 2311,
      "গরিত": 2312,
      "এরকম": 2313,
      "এক্স": 2314,
      "কারণে": 2315,
      "ধইরা": 2316,
      "তৈরি": 2317,
      "আশ": 2318,
      "কোর": 2319,
      "খতো": 2320,
      "তান": 2321,
      "প্যা": 2322,
      "##লগে": 2323,
      "##বাইন": 2324,
      "##দান": 2325,
      "##র্শ": 2326,
      "গরির": 2327,
      "##ছোস": 2328,
      "অবস্থ": 2329,
      "ইয়াকু": 2330,
      "শুনি": 2331,
      "ইট্টু": 2332,
      "সিগারেট": 2333,
      "ফান": 2334,
      "##ফট": 2335,
      "বিছ": 2336,
      "ওইডা": 2337,
      "##চ্চি": 2338,
      "##জির": 2339,
      "ফাইর": 2340,
      "ছাইর": 2341,
      "তয়": 2342,
      "হলি": 2343,
      "##খাল": 2344,
      "বিপ": 2345,
      "বিস্": 2346,
      "আছেন": 2347,
      "এরম": 2348,
      "দাদা": 2349,
      "প্রেম": 2350,
      "দায়িত্ব": 2351,
      "আড্ডা": 2352,
      "কাও": 2353,
      "ঘরো": 2354,
      "যান": 2355,
      "হায়": 2356,
      "##বুর": 2357,
      "##লোক": 2358,
      "লাগতো": 2359,
      "তারারে": 2360,
      "তাঁর": 2361,
      "দেহাই": 2362,
      "উফ": 2363,
      "এডি": 2364,
      "হতে": 2365,
      "##বানি": 2366,
      "দিবা": 2367,
      "বেআ": 2368,
      "দুইদিন": 2369,
      "খাইছি": 2370,
      "স্কু": 2371,
      "আসলেই": 2372,
      "মুবাইল": 2373,
      "খইরদি": 2374,
      "ফুর": 2375,
      "ফছন্দ": 2376,
      "হরি": 2377,
      "##্যারা": 2378,
      "করতি": 2379,
      "সবু": 2380,
      "পারবে": 2381,
      "বিষয়ে": 2382,
      "সুমায়": 2383,
      "কায়": 2384,
      "কুম": 2385,
      "টো": 2386,
      "হঠা": 2387,
      "##বান্": 2388,
      "##জো": 2389,
      "##খো": 2390,
      "##লাও": 2391,
      "একসা": 2392,
      "নিচে": 2393,
      "সমত": 2394,
      "যাবার": 2395,
      "গেইয়্যি": 2396,
      "মইদ্দ": 2397,
      "এলাকা": 2398,
      "ঠিকাছে": 2399,
      "অফ": 2400,
      "ঝা": 2401,
      "মনের": 2402,
      "যামু": 2403,
      "হলু": 2404,
      "##বাম": 2405,
      "##কুম": 2406,
      "##পান": 2407,
      "##সবু": 2408,
      "লাগাই": 2409,
      "গরিবার": 2410,
      "ভিতর": 2411,
      "দেশে": 2412,
      "##গ্ধ": 2413,
      "##গ্গা": 2414,
      "মাইনষের": 2415,
      "দাওয়াত": 2416,
      "কাগ": 2417,
      "যোগ": 2418,
      "##তী": 2419,
      "##পন": 2420,
      "আমাক": 2421,
      "দিনে": 2422,
      "মাঠ": 2423,
      "করেছে": 2424,
      "প্রশ্": 2425,
      "খেয়ে": 2426,
      "ক্লা": 2427,
      "ঢাকায়": 2428,
      "কৃ": 2429,
      "##লত": 2430,
      "##খনো": 2431,
      "দিলো": 2432,
      "ম্যাচ": 2433,
      "পড়তে": 2434,
      "আব্বু": 2435,
      "##ণের": 2436,
      "##শাল": 2437,
      "##ায়ী": 2438,
      "করলাম": 2439,
      "গায়ে": 2440,
      "দুইশো": 2441,
      "করিস": 2442,
      "শুনে": 2443,
      "ধরনের": 2444,
      "মাইয়াফোয়া": 2445,
      "বিশ্ববিদ": 2446,
      "টেলিফোন": 2447,
      "উরা": 2448,
      "উনার": 2449,
      "ওষু": 2450,
      "রকম": 2451,
      "##চর": 2452,
      "##চুর": 2453,
      "##বালা": 2454,
      "##য়ার্": 2455,
      "##হেনে": 2456,
      "##ম্বর": 2457,
      "চালা": 2458,
      "রেকর্": 2459,
      "দেইক্কা": 2460,
      "##গ্রাম": 2461,
      "##মন্ত্রীর": 2462,
      "গইরজি": 2463,
      "##দুলি": 2464,
      "হঠাৎ": 2465,
      "আবে": 2466,
      "দই": 2467,
      "ফ্রেন্ড": 2468,
      "হরে": 2469,
      "##কল্প": 2470,
      "##ক্রি": 2471,
      "পাশে": 2472,
      "খেতে": 2473,
      "##ঞ্জা": 2474,
      "বাপের": 2475,
      "থুইয়া": 2476,
      "অইব্যু": 2477,
      "এম্নে": 2478,
      "অংশ": 2479,
      "##মানে": 2480,
      "##দীর": 2481,
      "##তাড়ি": 2482,
      "বাড়া": 2483,
      "করতাম": 2484,
      "বেজ্ঞ": 2485,
      "##ল্লার": 2486,
      "এখজন": 2487,
      "বুজি": 2488,
      "##িকার": 2489,
      "হয়তো": 2490,
      "লাইফ": 2491,
      "মিল": 2492,
      "##মিলি": 2493,
      "দেইন": 2494,
      "উপরে": 2495,
      "ডিম": 2496,
      "গাছের": 2497,
      "আপনাকে": 2498,
      "তিরিশ": 2499,
      "বিশ্ববিদ্যাল": 2500,
      "কমি": 2501,
      "পুরো": 2502,
      "##জান": 2503,
      "##াগো": 2504,
      "করমু": 2505,
      "মায়া": 2506,
      "লাগা": 2507,
      "এখনা": 2508,
      "ভালবা": 2509,
      "##নিক": 2510,
      "খাইয়ে": 2511,
      "মুগ্ধ": 2512,
      "##ন্যবাদ": 2513,
      "##মিত": 2514,
      "আইসসে": 2515,
      "##হামদুলি": 2516,
      "অক্ক": 2517,
      "আচে": 2518,
      "আলু": 2519,
      "খানি": 2520,
      "লাক": 2521,
      "শ্যা": 2522,
      "##পু": 2523,
      "##লেখা": 2524,
      "এইল্লে": 2525,
      "কইতাছে": 2526,
      "##য়ারি": 2527,
      "প্রাই": 2528,
      "নেয়": 2529,
      "দ্যাখ": 2530,
      "মালিক": 2531,
      "সারাদিন": 2532,
      "তামান্না": 2533,
      "ইসলাম": 2534,
      "উৎ": 2535,
      "ওয়ে": 2536,
      "বার্": 2537,
      "হক্কল": 2538,
      "##গুই": 2539,
      "##স্য": 2540,
      "##ভাই": 2541,
      "##ান্য": 2542,
      "##লেক": 2543,
      "দেড়": 2544,
      "##্যায়": 2545,
      "আইন্না": 2546,
      "##য়ারা": 2547,
      "রাতে": 2548,
      "ফেলে": 2549,
      "##ত্রী": 2550,
      "##দ্দুর": 2551,
      "বেআগ": 2552,
      "অরে": 2553,
      "আত্ম": 2554,
      "ডাইল": 2555,
      "নু": 2556,
      "মজার": 2557,
      "মহি": 2558,
      "##শুর": 2559,
      "একদম": 2560,
      "অইবু": 2561,
      "মানি": 2562,
      "সিদ্ধ": 2563,
      "চোখে": 2564,
      "খাওয়ার": 2565,
      "পড়াশ": 2566,
      "##ণ্ড": 2567,
      "পৌ": 2568,
      "##ীরে": 2569,
      "##ণি": 2570,
      "##শোর": 2571,
      "##াইশ": 2572,
      "##ন্সি": 2573,
      "মাত্র": 2574,
      "##র্থ": 2575,
      "রাহি": 2576,
      "##ডির": 2577,
      "আম্মা": 2578,
      "হিসেবে": 2579,
      "যোগাযোগ": 2580,
      "আয়ে": 2581,
      "কফি": 2582,
      "ছাগল": 2583,
      "ঝগ": 2584,
      "লেই": 2585,
      "শহ": 2586,
      "সই": 2587,
      "সপ্তা": 2588,
      "##ফু": 2589,
      "নাা": 2590,
      "কিডা": 2591,
      "##র্জা": 2592,
      "##হাস": 2593,
      "মিলি": 2594,
      "##ষ্ঠ": 2595,
      "ঘরত": 2596,
      "জিনিসটা": 2597,
      "কিলাখান": 2598,
      "তাড়াতাড়ি": 2599,
      "আনে": 2600,
      "ঠা": 2601,
      "দার": 2602,
      "বোন": 2603,
      "স্যারে": 2604,
      "##ড্যা": 2605,
      "##সুম": 2606,
      "ভাইয়ের": 2607,
      "রেনু": 2608,
      "অবাক": 2609,
      "##ষ্কার": 2610,
      "আলহামদুলি": 2611,
      "অধ": 2612,
      "খষ্ট": 2613,
      "গার্": 2614,
      "টুক": 2615,
      "##নুর": 2616,
      "##ধব": 2617,
      "মাটি": 2618,
      "কেনে": 2619,
      "##গুনে": 2620,
      "##মাণ": 2621,
      "##ূর্য": 2622,
      "অপে": 2623,
      "কখন": 2624,
      "হুই": 2625,
      "##ট্টি": 2626,
      "##জাই": 2627,
      "থাকা": 2628,
      "টেন": 2629,
      "পেয়ে": 2630,
      "জায়গায়": 2631,
      "##হিনী": 2632,
      "আন্নের": 2633,
      "রংপুর": 2634,
      "ঠান্ডা": 2635,
      "##ওন": 2636,
      "##ফল": 2637,
      "##াইট": 2638,
      "ওইয়া": 2639,
      "যাইর": 2640,
      "খইল": 2641,
      "খইতে": 2642,
      "##ম্মা": 2643,
      "বিশাল": 2644,
      "পিছ": 2645,
      "আসিল": 2646,
      "উন্নয়ন": 2647,
      "জাগায়": 2648,
      "গুরুত্ব": 2649,
      "লন্ডন": 2650,
      "সবুজ": 2651,
      "আঞ্চ": 2652,
      "উন": 2653,
      "ড্রাই": 2654,
      "নানা": 2655,
      "বলা": 2656,
      "##মায়": 2657,
      "##পারে": 2658,
      "##প্ট": 2659,
      "সবতা": 2660,
      "ফরিবু": 2661,
      "দ্বিতীয়": 2662,
      "ইয়াকুব": 2663,
      "আরাম": 2664,
      "ঈদ": 2665,
      "উচিত": 2666,
      "কাক": 2667,
      "জ্যা": 2668,
      "সাগ": 2669,
      "##মত": 2670,
      "নাস্তা": 2671,
      "##রাস": 2672,
      "বাল্লা": 2673,
      "##ন্দু": 2674,
      "করেছি": 2675,
      "মাইয়ে": 2676,
      "গরো": 2677,
      "তেমন": 2678,
      "প্ল": 2679,
      "চিটা": 2680,
      "গুলা": 2681,
      "রোজা": 2682,
      "প্রধানমন্ত্রীর": 2683,
      "শরীর": 2684,
      "মায়ের": 2685,
      "কাপড়": 2686,
      "ফয়লা": 2687,
      "আখ": 2688,
      "ইখানো": 2689,
      "বঙ্গ": 2690,
      "হওয়া": 2691,
      "##কটা": 2692,
      "##ফুর": 2693,
      "##চনা": 2694,
      "##চিব": 2695,
      "জানাই": 2696,
      "লেখ": 2697,
      "জাতীয়": 2698,
      "##চ্চু": 2699,
      "হুনি": 2700,
      "হোটে": 2701,
      "উফরে": 2702,
      "গুম": 2703,
      "গুর": 2704,
      "মদ্দে": 2705,
      "লম্বা": 2706,
      "##হারা": 2707,
      "দিই": 2708,
      "প্রয়োজন": 2709,
      "পরীক্ষা": 2710,
      "বাগান": 2711,
      "গরা": 2712,
      "ধরো": 2713,
      "##তাই": 2714,
      "##রত": 2715,
      "##মিন": 2716,
      "##ঁত": 2717,
      "বায়": 2718,
      "ওইবো": 2719,
      "ফাশ": 2720,
      "প্লে": 2721,
      "বছরের": 2722,
      "পুরা": 2723,
      "ইনকাম": 2724,
      "ভালোবাসি": 2725,
      "জুতা": 2726,
      "সমাধান": 2727,
      "ইকটু": 2728,
      "বাজারে": 2729,
      "বৃ": 2730,
      "##জ্য": 2731,
      "##খানা": 2732,
      "##ষে": 2733,
      "আমরারে": 2734,
      "##ন্টে": 2735,
      "##তেছে": 2736,
      "##্যাস": 2737,
      "বিল্": 2738,
      "আইবো": 2739,
      "গেছিলাম": 2740,
      "হইবু": 2741,
      "খাজ": 2742,
      "পরিবু": 2743,
      "অ্যাঁরে": 2744,
      "ফিরি": 2745,
      "রোহি": 2746,
      "আঞ্চলিক": 2747,
      "ঈদের": 2748,
      "জমা": 2749,
      "ফ্রি": 2750,
      "লৈ": 2751,
      "সুন": 2752,
      "হগল": 2753,
      "##দাই": 2754,
      "খইয়্যে": 2755,
      "খাতা": 2756,
      "গরুর": 2757,
      "শাহ": 2758,
      "দ্যায়": 2759,
      "আছলা": 2760,
      "খালার": 2761,
      "জনগ": 2762,
      "ভালোবাসা": 2763,
      "এয়া": 2764,
      "ওয়ান": 2765,
      "ছার": 2766,
      "ডু": 2767,
      "নৌ": 2768,
      "বন": 2769,
      "হারি": 2770,
      "##োনার": 2771,
      "খরো": 2772,
      "মাইরা": 2773,
      "রেনুর": 2774,
      "ছোড": 2775,
      "ছুটো": 2776,
      "খাওন": 2777,
      "আন্নে": 2778,
      "উট": 2779,
      "এত্তে": 2780,
      "ধারণ": 2781,
      "হাছা": 2782,
      "সবকিছু": 2783,
      "দাদু": 2784,
      "উপহার": 2785,
      "নির্বাচ": 2786,
      "হলুদ": 2787,
      "ঝগড়া": 2788,
      "কলা": 2789,
      "পান": 2790,
      "ভই": 2791,
      "##প্র": 2792,
      "##অলর": 2793,
      "দেশো": 2794,
      "##ত্রিশ": 2795,
      "কালা": 2796,
      "খইতাম": 2797,
      "##ান্স": 2798,
      "পাস": 2799,
      "ফাঁ": 2800,
      "ছিন্তা": 2801,
      "দরখার": 2802,
      "ইতেরে": 2803,
      "চলো": 2804,
      "বছ": 2805,
      "##দ্য": 2806,
      "কিভাবে": 2807,
      "তোকে": 2808,
      "##ছিনা": 2809,
      "আরার": 2810,
      "বিডিও": 2811,
      "মাংস": 2812,
      "গেসে": 2813,
      "নাইলে": 2814,
      "##য়্যেরে": 2815,
      "মেডি": 2816,
      "মিস": 2817,
      "চাঁ": 2818,
      "আফনারে": 2819,
      "বুঝে": 2820,
      "ফরী": 2821,
      "নিজেই": 2822,
      "পারেন": 2823,
      "##ার্থী": 2824,
      "একসাথে": 2825,
      "তের": 2826,
      "ফ্যান": 2827,
      "##িয়ে": 2828,
      "##মতো": 2829,
      "##দয়": 2830,
      "##রির": 2831,
      "বেক": 2832,
      "##দিয়া": 2833,
      "আফা": 2834,
      "জিগাই": 2835,
      "সামনের": 2836,
      "ইস্কুলো": 2837,
      "রেকর্ড": 2838,
      "চাও": 2839,
      "চল্লিশ": 2840,
      "জাল": 2841,
      "দী": 2842,
      "ফড়ে": 2843,
      "২০": 2844,
      "##ুণ": 2845,
      "##রাট": 2846,
      "বাবু": 2847,
      "##তেও": 2848,
      "একখান": 2849,
      "করুন": 2850,
      "করতাছে": 2851,
      "##সেন্ট": 2852,
      "খাছে": 2853,
      "গরিব": 2854,
      "রেস্": 2855,
      "দেইখা": 2856,
      "ফিরে": 2857,
      "ভাষায়": 2858,
      "কইররা": 2859,
      "বর্তম": 2860,
      "দৌড়": 2861,
      "##্যান্ড": 2862,
      "আন্তর্জা": 2863,
      "বর্তমানে": 2864,
      "আন্তর্জাতিক": 2865,
      "ইন্টার": 2866,
      "উচ্চ": 2867,
      "ফাইন": 2868,
      "যতো": 2869,
      "##মতা": 2870,
      "##উন": 2871,
      "##াইলে": 2872,
      "##য়াছে": 2873,
      "কর্": 2874,
      "মানু": 2875,
      "থাকতো": 2876,
      "##জন্য": 2877,
      "বইস": 2878,
      "##ক্ষি": 2879,
      "লেহা": 2880,
      "ছোডো": 2881,
      "গাড়ির": 2882,
      "থাইক্কা": 2883,
      "অবো": 2884,
      "এল": 2885,
      "ফেই": 2886,
      "ফাও": 2887,
      "বানা": 2888,
      "সচিব": 2889,
      "##রের": 2890,
      "নাগে": 2891,
      "দিনের": 2892,
      "এইসব": 2893,
      "##ক্কি": 2894,
      "নিতে": 2895,
      "মানা": 2896,
      "সাদা": 2897,
      "##বিক": 2898,
      "খেলে": 2899,
      "##ম্নে": 2900,
      "আফন": 2901,
      "প্লাস": 2902,
      "আছোইন": 2903,
      "দূরে": 2904,
      "পয়সা": 2905,
      "##জাল্ট": 2906,
      "শুক্র": 2907,
      "ইয়": 2908,
      "পন": 2909,
      "পাক": 2910,
      "##সাই": 2911,
      "যেত্তে": 2912,
      "গেলি": 2913,
      "##কিৎ": 2914,
      "লইয়্যে": 2915,
      "মেয়ের": 2916,
      "আসবে": 2917,
      "কামাই": 2918,
      "ফ্যামিলি": 2919,
      "গ্রু": 2920,
      "রাজনীতি": 2921,
      "আলহামদুলিল্লাহ": 2922,
      "অপেক্ষা": 2923,
      "এয়ার": 2924,
      "কার্ড": 2925,
      "গলা": 2926,
      "পঞ্চাশ": 2927,
      "সেরা": 2928,
      "##হিনি": 2929,
      "##ংবা": 2930,
      "##এন": 2931,
      "##ষি": 2932,
      "এইনো": 2933,
      "এইডার": 2934,
      "গেছ": 2935,
      "হইবো": 2936,
      "খরের": 2937,
      "মিথ": 2938,
      "প্রি": 2939,
      "কুনো": 2940,
      "দ্যাহা": 2941,
      "বৈঠ": 2942,
      "আশি": 2943,
      "উল্": 2944,
      "উডি": 2945,
      "ডই": 2946,
      "রিক": 2947,
      "হতো": 2948,
      "##লী": 2949,
      "##কত": 2950,
      "##কন": 2951,
      "##ার্ট": 2952,
      "কিরে": 2953,
      "একই": 2954,
      "বেতন": 2955,
      "##ড়ির": 2956,
      "##হালে": 2957,
      "তালা": 2958,
      "খাতি": 2959,
      "সেকে": 2960,
      "ফেসবু": 2961,
      "##দ্ধে": 2962,
      "স্যারের": 2963,
      "গ্যাস": 2964,
      "স্থানীয়": 2965,
      "আন্দ": 2966,
      "ইবের": 2967,
      "এরে": 2968,
      "কউ": 2969,
      "কখনো": 2970,
      "রস": 2971,
      "##ব্য": 2972,
      "##শের": 2973,
      "##পূর্ণ": 2974,
      "কিচ্চু": 2975,
      "##ন্নি": 2976,
      "বাসার": 2977,
      "##স্তার": 2978,
      "কইস": 2979,
      "##ড়িয়ে": 2980,
      "হইব": 2981,
      "রাত": 2982,
      "থাকবে": 2983,
      "চাপ": 2984,
      "##যোগি": 2985,
      "কাগজ": 2986,
      "ড্রাইভার": 2987,
      "বিল্ডিং": 2988,
      "ধারণা": 2989,
      "আতো": 2990,
      "ওয়াই": 2991,
      "নীল": 2992,
      "পাগল": 2993,
      "ময়": 2994,
      "হওয়ার": 2995,
      "##সন": 2996,
      "কিনে": 2997,
      "করছো": 2998,
      "##চ্চে": 2999,
      "কাজে": 3000,
      "খাইছে": 3001,
      "##কারী": 3002,
      "ফাতে": 3003,
      "কারো": 3004,
      "স্বামী": 3005,
      "কিনতে": 3006,
      "প্রতিদিন": 3007,
      "বেয়াকগুনে": 3008,
      "ইন্ডিয়া": 3009,
      "ব্যাঙচি": 3010,
      "খানা": 3011,
      "চৌ": 3012,
      "ফন": 3013,
      "##তলা": 3014,
      "##গলে": 3015,
      "বাত": 3016,
      "কাটা": 3017,
      "সাধারণ": 3018,
      "সেদিন": 3019,
      "##জেক্ট": 3020,
      "ফাছ": 3021,
      "##মাত্র": 3022,
      "ছিলাম": 3023,
      "চেয়ার": 3024,
      "উইঠ": 3025,
      "জেলা": 3026,
      "জমিদার": 3027,
      "ভোট": 3028,
      "মসজিদ": 3029,
      "আনা": 3030,
      "নদীর": 3031,
      "বার্সিটি": 3032,
      "মৃ": 3033,
      "যের": 3034,
      "দিবি": 3035,
      "বেব": 3036,
      "বেগ": 3037,
      "সমই": 3038,
      "সবজি": 3039,
      "##ান্ন": 3040,
      "মেঘ": 3041,
      "মুখে": 3042,
      "মুক্তি": 3043,
      "চাষ": 3044,
      "রেখে": 3045,
      "লাউ": 3046,
      "ছোটো": 3047,
      "উঠে": 3048,
      "হামরা": 3049,
      "ইতিহাস": 3050,
      "চইল": 3051,
      "নিশ্চিত": 3052,
      "বিমানব": 3053,
      "অনের": 3054,
      "কত্তি": 3055,
      "দান": 3056,
      "পুক": 3057,
      "ফাওয়া": 3058,
      "যাক": 3059,
      "শো": 3060,
      "##রম": 3061,
      "##রাই": 3062,
      "##হম": 3063,
      "মাথায়": 3064,
      "##ত্তাম": 3065,
      "দেখো": 3066,
      "বুলি": 3067,
      "পাতা": 3068,
      "খেত": 3069,
      "স্ম": 3070,
      "হেইয়া": 3071,
      "গুরা": 3072,
      "কুটি": 3073,
      "মইদ্যে": 3074,
      "দোস্ত": 3075,
      "সহজ": 3076,
      "##ক্সবাজার": 3077,
      "বিরক্ত": 3078,
      "মধ্যি": 3079,
      "কুই": 3080,
      "ছল": 3081,
      "নই": 3082,
      "বোই": 3083,
      "মেইন": 3084,
      "লী": 3085,
      "##িতি": 3086,
      "##দুল": 3087,
      "##ঝে": 3088,
      "এইবার": 3089,
      "অইতাছে": 3090,
      "##বির": 3091,
      "##কিল": 3092,
      "সিস্টে": 3093,
      "মুটামুটি": 3094,
      "করিছে": 3095,
      "এহনো": 3096,
      "চিকিৎ": 3097,
      "পারবেন": 3098,
      "ফরছে": 3099,
      "##ঙ্গল": 3100,
      "আম্নের": 3101,
      "ক্ষেত": 3102,
      "এটে": 3103,
      "এগুলা": 3104,
      "চার্": 3105,
      "চলের": 3106,
      "হৃ": 3107,
      "##ছুর": 3108,
      "দিয়ি": 3109,
      "##রিত": 3110,
      "বিয়ের": 3111,
      "বিচার": 3112,
      "কইলে": 3113,
      "কাহিনী": 3114,
      "নাইগা": 3115,
      "##জিত": 3116,
      "খুলি": 3117,
      "আছিলাম": 3118,
      "থায়ে": 3119,
      "আছলাম": 3120,
      "মুরগি": 3121,
      "রহমান": 3122,
      "শ্যাষ": 3123,
      "বদ্দা": 3124,
      "লক্ষ": 3125,
      "হাও": 3126,
      "##জীব": 3127,
      "এইরকম": 3128,
      "আইতে": 3129,
      "যাতি": 3130,
      "চাইতে": 3131,
      "##টুরে": 3132,
      "দেইখ": 3133,
      "আজিয়া": 3134,
      "দুঃখ": 3135,
      "বঙ্গবন্ধ": 3136,
      "আদ": 3137,
      "ওটে": 3138,
      "গের": 3139,
      "চাম": 3140,
      "জগ": 3141,
      "তাল": 3142,
      "নয়া": 3143,
      "মৌ": 3144,
      "রূ": 3145,
      "শখ": 3146,
      "শ্ব": 3147,
      "##লাল": 3148,
      "বাথর": 3149,
      "দিবু": 3150,
      "ওইটা": 3151,
      "##লামু": 3152,
      "যাইস": 3153,
      "কাহিনি": 3154,
      "খরতো": 3155,
      "পাখি": 3156,
      "খাইলে": 3157,
      "লাস্ট": 3158,
      "পরিবেশ": 3159,
      "##জ্ঞে": 3160,
      "##জ্ঞান": 3161,
      "সাইর": 3162,
      "জানেন": 3163,
      "মন্ত্রী": 3164,
      "আল্লায়": 3165,
      "ইত্তা": 3166,
      "কক্সবাজার": 3167,
      "ঝু": 3168,
      "ফ্": 3169,
      "ফের": 3170,
      "হালাই": 3171,
      "##টর": 3172,
      "##শীল": 3173,
      "##ছাইন": 3174,
      "যেক": 3175,
      "##তিয়া": 3176,
      "##ক্কার": 3177,
      "মাদ্": 3178,
      "সময়ে": 3179,
      "থাকিয়া": 3180,
      "ফাচ": 3181,
      "আগ্রহ": 3182,
      "শিল্প": 3183,
      "##পাশে": 3184,
      "এলাকার": 3185,
      "##াক্কা": 3186,
      "##ষণা": 3187,
      "বাথরুম": 3188,
      "আঙ্গ": 3189,
      "গাইল": 3190,
      "ঠ্যা": 3191,
      "বুন": 3192,
      "শোন": 3193,
      "শক্তি": 3194,
      "##হস": 3195,
      "##ুদ্র": 3196,
      "##লেম": 3197,
      "##িনের": 3198,
      "কইন": 3199,
      "তাখে": 3200,
      "করিম": 3201,
      "কোনোদিন": 3202,
      "আগামী": 3203,
      "টাকার": 3204,
      "ফরীক্কা": 3205,
      "শ্বশুর": 3206,
      "ওয়ার্": 3207,
      "ত্রি": 3208,
      "থেই": 3209,
      "হডে": 3210,
      "##মী": 3211,
      "##ময়": 3212,
      "##ভার্সিটি": 3213,
      "##এম": 3214,
      "##ঘা": 3215,
      "##ড়ের": 3216,
      "##তাসে": 3217,
      "বিরাট": 3218,
      "মাফ": 3219,
      "##দিনে": 3220,
      "ব্যাফার": 3221,
      "পারো": 3222,
      "তিনটা": 3223,
      "গোসল": 3224,
      "ধরন": 3225,
      "ইতারারে": 3226,
      "ট্যাকা": 3227,
      "পছন্দের": 3228,
      "##গুলার": 3229,
      "আত্মীয়": 3230,
      "বাল্লাগে": 3231,
      "ফাতেমা": 3232,
      "আকাশ": 3233,
      "এগিন": 3234,
      "খডে": 3235,
      "চলা": 3236,
      "হৈ": 3237,
      "বাঁচ": 3238,
      "বিড়ি": 3239,
      "ওইলে": 3240,
      "সালে": 3241,
      "##ান্দা": 3242,
      "খেলি": 3243,
      "আসতে": 3244,
      "মিক্কে": 3245,
      "লাব": 3246,
      "সম্মান": 3247,
      "##াক্ষ": 3248,
      "নাগবো": 3249,
      "##এসসি": 3250,
      "কবিতা": 3251,
      "উদ্দেশ": 3252,
      "দুনিয়া": 3253,
      "খোঁজ": 3254,
      "ওষুধ": 3255,
      "রেস্টুরে": 3256,
      "অও": 3257,
      "কুর": 3258,
      "চট্ট": 3259,
      "মশ": 3260,
      "রম": 3261,
      "##কারে": 3262,
      "##উয়া": 3263,
      "তোক": 3264,
      "বাহ": 3265,
      "দেহে": 3266,
      "যেডা": 3267,
      "##ক্সি": 3268,
      "যাইত": 3269,
      "বোত": 3270,
      "টিচার": 3271,
      "ছুটি": 3272,
      "ফোয়ার": 3273,
      "##ব্বই": 3274,
      "আন্দোল": 3275,
      "সমইস্যা": 3276,
      "ওলা": 3277,
      "কলি": 3278,
      "চক": 3279,
      "ছিন": 3280,
      "জির": 3281,
      "ভারি": 3282,
      "রোগ": 3283,
      "লুক": 3284,
      "সিনি": 3285,
      "হানি": 3286,
      "##ণা": 3287,
      "##হত": 3288,
      "##শনে": 3289,
      "##উল": 3290,
      "##ভীর": 3291,
      "##ঠিক": 3292,
      "##াইছি": 3293,
      "বেটা": 3294,
      "বেটি": 3295,
      "কইতাছি": 3296,
      "হইরা": 3297,
      "কেয়া": 3298,
      "বুল": 3299,
      "সুপ": 3300,
      "সিরিয়া": 3301,
      "চালায়": 3302,
      "হুদা": 3303,
      "গ্যালো": 3304,
      "দেহো": 3305,
      "জামাইর": 3306,
      "সিলেটোর": 3307,
      "অনুষ্ঠান": 3308,
      "প্রশ্ন": 3309,
      "মিথ্যা": 3310,
      "স্মৃতি": 3311,
      "অথ": 3312,
      "ওও": 3313,
      "থু": 3314,
      "দরো": 3315,
      "পৃ": 3316,
      "ব্ল": 3317,
      "মহা": 3318,
      "##্ন": 3319,
      "##ণে": 3320,
      "##গ্যা": 3321,
      "##ধীন": 3322,
      "##লাপ": 3323,
      "আইয়ে": 3324,
      "আইতো": 3325,
      "আইলাম": 3326,
      "নিউ": 3327,
      "##টিয়া": 3328,
      "রাস্তার": 3329,
      "মেয়া": 3330,
      "আসো": 3331,
      "##লাইয়া": 3332,
      "গইজ্জ": 3333,
      "ছেলের": 3334,
      "আগেই": 3335,
      "ক্ষমতা": 3336,
      "অঞ্চ": 3337,
      "উদ্দি": 3338,
      "ওম": 3339,
      "গায়": 3340,
      "দ্যান": 3341,
      "ব্রি": 3342,
      "ষাইট": 3343,
      "##টারি": 3344,
      "##ূত": 3345,
      "##সসা": 3346,
      "বাচ্চ": 3347,
      "দেব": 3348,
      "এইডে": 3349,
      "মাসের": 3350,
      "যাইবার": 3351,
      "##সিল": 3352,
      "দেখার": 3353,
      "দেখলে": 3354,
      "কোনও": 3355,
      "ভালোবাস": 3356,
      "ভাইর": 3357,
      "স্প": 3358,
      "আসছে": 3359,
      "ফাত্তর": 3360,
      "জানতে": 3361,
      "পরিচয়": 3362,
      "আইজকে": 3363,
      "খইরদে": 3364,
      "লাইগ্যা": 3365,
      "জ্ঞ": 3366,
      "ধর্ম": 3367,
      "ধন্যবাদ": 3368,
      "ব্রা": 3369,
      "সন্ত": 3370,
      "##তৃ": 3371,
      "##উটি": 3372,
      "##ছাই": 3373,
      "##ফুল": 3374,
      "##টাও": 3375,
      "খইয়া": 3376,
      "খরছইন": 3377,
      "তুমিতাইন": 3378,
      "চাইলে": 3379,
      "অইলদে": 3380,
      "অফিস": 3381,
      "ইংরে": 3382,
      "ইউনিভার্সিটি": 3383,
      "স্কুলে": 3384,
      "সেকেন্ড": 3385,
      "অবি": 3386,
      "কথ": 3387,
      "কডে": 3388,
      "ছাওয়া": 3389,
      "জোর": 3390,
      "ট্রে": 3391,
      "বয়া": 3392,
      "রায়": 3393,
      "সী": 3394,
      "##মাই": 3395,
      "##ৈতিক": 3396,
      "কিন্না": 3397,
      "বাস্ত": 3398,
      "এইয়া": 3399,
      "করবা": 3400,
      "##নাত": 3401,
      "ভাঙ": 3402,
      "কেউরে": 3403,
      "সিলেটের": 3404,
      "মরিচ": 3405,
      "ক্রিকেট": 3406,
      "প্লেয়ার": 3407,
      "রোহিঙ্গা": 3408,
      "সিস্টেম": 3409,
      "অবা": 3410,
      "এতা": 3411,
      "ওমা": 3412,
      "স্টু": 3413,
      "##হুম": 3414,
      "##শশো": 3415,
      "নাও": 3416,
      "##ক্টু": 3417,
      "মাহ": 3418,
      "কইতাম": 3419,
      "কইতার": 3420,
      "##ানিত": 3421,
      "তুমরা": 3422,
      "খইছে": 3423,
      "লইজ্ঞা": 3424,
      "আরেখ": 3425,
      "##স্টার": 3426,
      "খালিয়ে": 3427,
      "গেইছে": 3428,
      "##ত্তুর": 3429,
      "জন্যি": 3430,
      "পরিবারের": 3431,
      "এহে": 3432,
      "কাকা": 3433,
      "খন": 3434,
      "ঘুরে": 3435,
      "চালাই": 3436,
      "বও": 3437,
      "ভুই": 3438,
      "শান্ত": 3439,
      "শীত": 3440,
      "##তত": 3441,
      "##লান": 3442,
      "##ইয়া": 3443,
      "##যো": 3444,
      "##গির": 3445,
      "##কান্": 3446,
      "##ানী": 3447,
      "যেদিন": 3448,
      "##াগু": 3449,
      "করবি": 3450,
      "আইডি": 3451,
      "মাথার": 3452,
      "##স্তু": 3453,
      "বেছ": 3454,
      "অইরে": 3455,
      "##টিস": 3456,
      "খালাম": 3457,
      "খেলার": 3458,
      "আসল": 3459,
      "রেজাল্ট": 3460,
      "##ব্বা": 3461,
      "কোম্প": 3462,
      "পড়ছে": 3463,
      "সংস": 3464,
      "শালা": 3465,
      "ক্ষতি": 3466,
      "মাথাত": 3467,
      "অল্প": 3468,
      "উত্তর": 3469,
      "কস": 3470,
      "কালি": 3471,
      "তত": 3472,
      "ভর": 3473,
      "শয়ত": 3474,
      "সফর": 3475,
      "##ররা": 3476,
      "##ফারে": 3477,
      "দিত": 3478,
      "##য়েল": 3479,
      "##িনার": 3480,
      "যেসময়": 3481,
      "করতো": 3482,
      "বেড়া": 3483,
      "খরমু": 3484,
      "হেয়া": 3485,
      "চাইল": 3486,
      "অ্যাঁরা": 3487,
      "পোস্ট": 3488,
      "এহনে": 3489,
      "ধইরে": 3490,
      "ফালাইয়্যে": 3491,
      "ফার্গু": 3492,
      "জ্বি": 3493,
      "হাসপাতালে": 3494,
      "বছরে": 3495,
      "আঠ": 3496,
      "আঙ্": 3497,
      "আহে": 3498,
      "ইশ": 3499,
      "ইসময়": 3500,
      "উম": 3501,
      "ওডা": 3502,
      "কবার": 3503,
      "খেই": 3504,
      "ঘি": 3505,
      "জর": 3506,
      "থান": 3507,
      "রাক": 3508,
      "হালি": 3509,
      "##গগা": 3510,
      "##সিন": 3511,
      "##ধন": 3512,
      "##লেট": 3513,
      "বাড়াই": 3514,
      "এইডাই": 3515,
      "##ক্কু": 3516,
      "মাও": 3517,
      "নিরা": 3518,
      "যাইয়েনে": 3519,
      "দেখিয়া": 3520,
      "পাট": 3521,
      "ভাইয়া": 3522,
      "##ছাড়া": 3523,
      "মিলে": 3524,
      "যদিও": 3525,
      "ব্যাং": 3526,
      "দুলা": 3527,
      "ফিছে": 3528,
      "শেষে": 3529,
      "রাখে": 3530,
      "উপজে": 3531,
      "রইছি": 3532,
      "তইলে": 3533,
      "ক্ষেত্রে": 3534,
      "সুনাম": 3535,
      "অভাব": 3536,
      "আসা": 3537,
      "উল": 3538,
      "ওতা": 3539,
      "চোর": 3540,
      "যাগা": 3541,
      "##তক": 3542,
      "##লারে": 3543,
      "##পড়া": 3544,
      "##রাষ্ট্র": 3545,
      "##ালের": 3546,
      "অইয়ে": 3547,
      "অইন্য": 3548,
      "ওইরে": 3549,
      "ওইডে": 3550,
      "প্রব": 3551,
      "পাচ": 3552,
      "করিয়া": 3553,
      "চিঠি": 3554,
      "##য়াইছে": 3555,
      "এলাকায়": 3556,
      "আম্নে": 3557,
      "উঠি": 3558,
      "মাইনসে": 3559,
      "হালকা": 3560,
      "ঢাকার": 3561,
      "ভদ্রলোক": 3562,
      "নরসিং": 3563,
      "চট্টগ্রাম": 3564,
      "ইদ": 3565,
      "গালি": 3566,
      "ছলের": 3567,
      "মাগ": 3568,
      "লয়া": 3569,
      "##টিন": 3570,
      "##শর": 3571,
      "##লায়া": 3572,
      "আমের": 3573,
      "##ড়াও": 3574,
      "একলগে": 3575,
      "যেতা": 3576,
      "গেছলাম": 3577,
      "কাঠ": 3578,
      "পাব": 3579,
      "হেতে": 3580,
      "বাইচ্চা": 3581,
      "সেটাই": 3582,
      "সুবিধা": 3583,
      "মেছ": 3584,
      "যায়গা": 3585,
      "পারবো": 3586,
      "থাখে": 3587,
      "বন্ধুর": 3588,
      "##তেরলাই": 3589,
      "দেশর": 3590,
      "চেং": 3591,
      "খারাফ": 3592,
      "মাছের": 3593,
      "দোয়ান": 3594,
      "আলাপ": 3595,
      "ভুদা": 3596,
      "সহযোগি": 3597,
      "অইলদি": 3598,
      "অহনে": 3599,
      "ফায়ার": 3600,
      "মৃত্য": 3601,
      "হৃদয়": 3602,
      "আলি": 3603,
      "গুই": 3604,
      "গুল": 3605,
      "তলে": 3606,
      "ফুই": 3607,
      "ফিন": 3608,
      "শী": 3609,
      "শাল": 3610,
      "শ্র": 3611,
      "##তও": 3612,
      "##ম্যান": 3613,
      "##ইর": 3614,
      "##পুরে": 3615,
      "##এল": 3616,
      "##য়োর": 3617,
      "##াইর": 3618,
      "কিশোর": 3619,
      "দিছ": 3620,
      "##ালো": 3621,
      "নির": 3622,
      "খাট": 3623,
      "টেবি": 3624,
      "মিছা": 3625,
      "মাইয়ার": 3626,
      "মাইদ্দে": 3627,
      "মাইয়্যা": 3628,
      "চাচ": 3629,
      "রেডি": 3630,
      "অবসর": 3631,
      "পরিশ": 3632,
      "ফাইছে": 3633,
      "ফাইছি": 3634,
      "রাখতে": 3635,
      "##দ্ধার": 3636,
      "নিজেরে": 3637,
      "##জ্জো": 3638,
      "##ভাবনা": 3639,
      "বিদ্যু": 3640,
      "গ্রামের": 3641,
      "মইদ্দযে": 3642,
      "প্ল্যান": 3643,
      "স্টুডেন্ট": 3644,
      "অরা": 3645,
      "ইনো": 3646,
      "ঘু": 3647,
      "পদ": 3648,
      "পঁ": 3649,
      "ফ্রে": 3650,
      "যন": 3651,
      "সঠিক": 3652,
      "##্স": 3653,
      "##শত": 3654,
      "##ফ্রেন্ড": 3655,
      "##ৎকার": 3656,
      "কিমুন": 3657,
      "দিল": 3658,
      "দেম": 3659,
      "##য়েন্ট": 3660,
      "##দেশি": 3661,
      "##ত্রা": 3662,
      "দেখাই": 3663,
      "##জিক": 3664,
      "##গাছ": 3665,
      "কিছুক্ষণ": 3666,
      "আসার": 3667,
      "আসলাম": 3668,
      "##লাইকুম": 3669,
      "রেল": 3670,
      "তুলে": 3671,
      "ব্যস্ত": 3672,
      "গোস্ত": 3673,
      "সাইকেল": 3674,
      "শুভ": 3675,
      "মনোয়": 3676,
      "ওকগা": 3677,
      "##ভেট": 3678,
      "গেইয়্যেগই": 3679,
      "ইন্দি": 3680,
      "পোয়া": 3681,
      "বোইন": 3682,
      "##হণ": 3683,
      "##কেই": 3684,
      "##ষ্য": 3685,
      "##ধার": 3686,
      "নাক": 3687,
      "এইতো": 3688,
      "##ামের": 3689,
      "মাধ্য": 3690,
      "##ত্রি": 3691,
      "যাইমু": 3692,
      "##র্ক": 3693,
      "##নিং": 3694,
      "##জিল": 3695,
      "পাহা": 3696,
      "খাইতাম": 3697,
      "ফরেদা": 3698,
      "ফাঁচ": 3699,
      "পারছি": 3700,
      "কাজের": 3701,
      "তরকারি": 3702,
      "##স্থিতি": 3703,
      "আল্লাহর": 3704,
      "ঘাস": 3705,
      "জন্নি": 3706,
      "ফার্স্ট": 3707,
      "খুঁজ": 3708,
      "নির্বাচন": 3709,
      "রেস্টুরেন্ট": 3710,
      "সিনিয়র": 3711,
      "ঘুরা": 3712,
      "জবাব": 3713,
      "তবু": 3714,
      "বিনি": 3715,
      "সরি": 3716,
      "হক": 3717,
      "##গত": 3718,
      "##কাই": 3719,
      "##ক্র": 3720,
      "বাহি": 3721,
      "দিসে": 3722,
      "##টাল": 3723,
      "বেডি": 3724,
      "হাছে": 3725,
      "এখান": 3726,
      "খরইন": 3727,
      "পাবে": 3728,
      "টেয়া": 3729,
      "মুহ": 3730,
      "মিক্ষে": 3731,
      "##টুকু": 3732,
      "ব্যাংক": 3733,
      "ফর্যন্ত": 3734,
      "কোটে": 3735,
      "গিল": 3736,
      "পাইছে": 3737,
      "##ন্ডার": 3738,
      "পড়ার": 3739,
      "গইরতে": 3740,
      "যেইডা": 3741,
      "কইরবার": 3742,
      "এহতেরলাই": 3743,
      "অর্থন": 3744,
      "ইংলিশ": 3745,
      "সৌদি": 3746,
      "আওয়ামী": 3747,
      "অক্করে": 3748,
      "পৃথি": 3749,
      "অলা": 3750,
      "ইলেক": 3751,
      "কহন": 3752,
      "পথ": 3753,
      "শুই": 3754,
      "সবে": 3755,
      "হারে": 3756,
      "##গ্র": 3757,
      "##জু": 3758,
      "##জজুম": 3759,
      "##থ্য": 3760,
      "দেবো": 3761,
      "একমাত্র": 3762,
      "##স্কার": 3763,
      "যাইয়্যুম": 3764,
      "কালে": 3765,
      "রাহে": 3766,
      "থাকো": 3767,
      "ভাইরে": 3768,
      "সুদ": 3769,
      "ফুলিশ": 3770,
      "লাশ": 3771,
      "##রামর্শ": 3772,
      "এক্কালে": 3773,
      "শিক্ষা": 3774,
      "কুত্তা": 3775,
      "টিউ": 3776,
      "ফরিবার": 3777,
      "জিজ্ঞে": 3778,
      "কালার": 3779,
      "ভাবনা": 3780,
      "কারেন": 3781,
      "অসুবিধা": 3782,
      "বাফের": 3783,
      "একেক": 3784,
      "অসম্": 3785,
      "ঢুকি": 3786,
      "নৌকা": 3787,
      "আন্দোলন": 3788,
      "কতি": 3789,
      "কবো": 3790,
      "খোন": 3791,
      "ঢুই": 3792,
      "দৃষ্টি": 3793,
      "শিক": 3794,
      "সদ": 3795,
      "সন্দে": 3796,
      "##শনের": 3797,
      "##জুর": 3798,
      "বাণি": 3799,
      "দিস": 3800,
      "##য়েন": 3801,
      "এইডি": 3802,
      "করুইন": 3803,
      "হালা": 3804,
      "##ারির": 3805,
      "খরতা": 3806,
      "পায়ে": 3807,
      "তুইন": 3808,
      "তাইর": 3809,
      "বুঝা": 3810,
      "বুঝছো": 3811,
      "লেক": 3812,
      "দশটা": 3813,
      "##দ্দো": 3814,
      "ঘুমাই": 3815,
      "ওয়াল": 3816,
      "ঘুরতে": 3817,
      "##সলমান": 3818,
      "সর্ব": 3819,
      "টেনশন": 3820,
      "অক্কল": 3821,
      "আং": 3822,
      "ইফ": 3823,
      "উড": 3824,
      "এতে": 3825,
      "এবা": 3826,
      "ট্য": 3827,
      "ট্র": 3828,
      "টার্": 3829,
      "মঙ্গল": 3830,
      "শাক": 3831,
      "হনো": 3832,
      "##তিন": 3833,
      "##ব্র": 3834,
      "##য়াইন": 3835,
      "নাাই": 3836,
      "কিতার": 3837,
      "সমান": 3838,
      "সমুদ্র": 3839,
      "খররাম": 3840,
      "তাঁ": 3841,
      "খেলাই": 3842,
      "টেস্ট": 3843,
      "সিটি": 3844,
      "বেশির": 3845,
      "আপু": 3846,
      "ব্যাটিং": 3847,
      "নিজর": 3848,
      "মামার": 3849,
      "ফইরা": 3850,
      "বেয়াকগিন": 3851,
      "কাঁচা": 3852,
      "পৌঁ": 3853,
      "ফার্গুসেন": 3854,
      "জিজ্ঞেস": 3855,
      "ইখান": 3856,
      "উল্লে": 3857,
      "ঋণ": 3858,
      "এডার": 3859,
      "ওগু": 3860,
      "গলাত": 3861,
      "দ্র": 3862,
      "ধু": 3863,
      "শ্": 3864,
      "শনি": 3865,
      "##বত": 3866,
      "##গুর": 3867,
      "##সং": 3868,
      "##জী": 3869,
      "##ন্ডা": 3870,
      "দির": 3871,
      "একলা": 3872,
      "বেড়াই": 3873,
      "নিবো": 3874,
      "কেম্নে": 3875,
      "খরবা": 3876,
      "খেয়াল": 3877,
      "বলছি": 3878,
      "##মেল": 3879,
      "নেতা": 3880,
      "বিয়াত": 3881,
      "ফিট": 3882,
      "গেইসে": 3883,
      "##ঙ্গার": 3884,
      "##সুন্দি": 3885,
      "মামি": 3886,
      "অন্যান্য": 3887,
      "কলেজো": 3888,
      "খোলা": 3889,
      "চোখের": 3890,
      "জ্বর": 3891,
      "নরম": 3892,
      "দুনো": 3893,
      "মহিলা": 3894,
      "সিদ্ধান্ত": 3895,
      "##ঁততে": 3896,
      "ইংরেজি": 3897,
      "ইবারে": 3898,
      "ওডে": 3899,
      "চম": 3900,
      "জী": 3901,
      "টক": 3902,
      "তেই": 3903,
      "পরা": 3904,
      "পাগ": 3905,
      "সভা": 3906,
      "##ণাল": 3907,
      "##ুনে": 3908,
      "##সহ": 3909,
      "##খু": 3910,
      "##েরি": 3911,
      "কিবা": 3912,
      "তোয়ারে": 3913,
      "##য়েছে": 3914,
      "করতা": 3915,
      "করলো": 3916,
      "কইলো": 3917,
      "##লিং": 3918,
      "##বিষ্য": 3919,
      "কেনা": 3920,
      "প্রকাশ": 3921,
      "##দ্দিন": 3922,
      "গাত": 3923,
      "##গুলে": 3924,
      "##চিং": 3925,
      "ব্যাডা": 3926,
      "গইজ্জে": 3927,
      "কোটি": 3928,
      "অনুম": 3929,
      "তিনডা": 3930,
      "টাঙ্গ": 3931,
      "পেট": 3932,
      "আইজকা": 3933,
      "গইরগি": 3934,
      "জেলার": 3935,
      "রাস্তায়": 3936,
      "রাজধান": 3937,
      "তামান্নার": 3938,
      "গ্রহণ": 3939,
      "পড়াশোনা": 3940,
      "বঙ্গবন্ধু": 3941,
      "উল্লেখ": 3942,
      "ঘুষ": 3943,
      "থানা": 3944,
      "দরি": 3945,
      "নার": 3946,
      "হউ": 3947,
      "হবার": 3948,
      "##বছর": 3949,
      "##মিক": 3950,
      "##উট": 3951,
      "##খারি": 3952,
      "দিয়": 3953,
      "##টাক": 3954,
      "একন": 3955,
      "বিটা": 3956,
      "##বার্": 3957,
      "##ডাও": 3958,
      "যাইন": 3959,
      "যাইবা": 3960,
      "সাহস": 3961,
      "খরলাম": 3962,
      "তাহে": 3963,
      "##ডেল": 3964,
      "##হিত": 3965,
      "##েষ্ট": 3966,
      "##ভাবিক": 3967,
      "নেওয়া": 3968,
      "গিলি": 3969,
      "তিনজন": 3970,
      "তিনশো": 3971,
      "গেইলে": 3972,
      "বাংলাদেশর": 3973,
      "##ক্কুর": 3974,
      "তোঁয়ারার": 3975,
      "দিছিন": 3976,
      "চলছে": 3977,
      "ভুলে": 3978,
      "রাজু": 3979,
      "বিদায়": 3980,
      "ইস্কুলের": 3981,
      "মন্ত্রণাল": 3982,
      "ঢাহা": 3983,
      "আফনারা": 3984,
      "বিমানবন্দর": 3985,
      "সন্দেহ": 3986,
      "আদর": 3987,
      "কয়া": 3988,
      "টানা": 3989,
      "তরা": 3990,
      "মক": 3991,
      "য়": 3992,
      "শতা": 3993,
      "শ্রে": 3994,
      "হদ্দে": 3995,
      "##হয়": 3996,
      "##গান": 3997,
      "##গলা": 3998,
      "কিচু": 3999,
      "বিজ্ঞান": 4000,
      "আইয়েনে": 4001,
      "##স্ব": 4002,
      "হাছিনা": 4003,
      "বুক": 4004,
      "বুচ্": 4005,
      "থাকপে": 4006,
      "কোনদিন": 4007,
      "মানুষরে": 4008,
      "বলছে": 4009,
      "##গুলি": 4010,
      "আনছে": 4011,
      "যুদ্ধ": 4012,
      "বাজারো": 4013,
      "পাঁচটা": 4014,
      "ভালোবাসে": 4015,
      "দাঁত": 4016,
      "অইয়্যেদে": 4017,
      "##্যাকছের": 4018,
      "স্বাধীন": 4019,
      "সুপারি": 4020,
      "বিদ্যুৎ": 4021,
      "আওয়ার": 4022,
      "ইটার": 4023,
      "কানি": 4024,
      "দাগ": 4025,
      "রবি": 4026,
      "১৯": 4027,
      "##নাই": 4028,
      "##টকি": 4029,
      "##ওনা": 4030,
      "##সন্দ": 4031,
      "##স্যার": 4032,
      "##ফিক": 4033,
      "##রেক্ট": 4034,
      "তোগে": 4035,
      "দিতা": 4036,
      "করছ": 4037,
      "অইত": 4038,
      "কইয়্য": 4039,
      "প্রচুর": 4040,
      "পাঞ্জা": 4041,
      "অনেকে": 4042,
      "খাবো": 4043,
      "মানুষর": 4044,
      "মুসলমান": 4045,
      "গেছেলো": 4046,
      "ফাতা": 4047,
      "চাচা": 4048,
      "##রোম": 4049,
      "ব্যবস": 4050,
      "বয়সে": 4051,
      "অইলেও": 4052,
      "তোঁয়ারা": 4053,
      "##ঞ্জাম": 4054,
      "এসেছে": 4055,
      "ফরালেখা": 4056,
      "স্বাভাবিক": 4057,
      "আলোচনা": 4058,
      "ইলাখান": 4059,
      "##কান্দর": 4060,
      "মেছকান্দর": 4061,
      "আ্যাকছের": 4062,
      "উদ্ধার": 4063,
      "কথায়": 4064,
      "চান": 4065,
      "থাম": 4066,
      "পথে": 4067,
      "বিন": 4068,
      "ভবিষ্য": 4069,
      "হখল": 4070,
      "##্ড": 4071,
      "##উখ": 4072,
      "বিড়": 4073,
      "করন": 4074,
      "লাগলো": 4075,
      "কাড": 4076,
      "নাইগ": 4077,
      "হইত": 4078,
      "দেখতাম": 4079,
      "রাজার": 4080,
      "আমরাও": 4081,
      "লাইক": 4082,
      "টেক": 4083,
      "মোকা": 4084,
      "বইসে": 4085,
      "ব্যাব": 4086,
      "চিনে": 4087,
      "##জ্ঞতা": 4088,
      "ফারতাম": 4089,
      "সাইডে": 4090,
      "ডাখ": 4091,
      "গইরজে": 4092,
      "লোকজন": 4093,
      "লিখ": 4094,
      "শিক্ষার্থী": 4095,
      "পরিশ্রম": 4096,
      "আশে": 4097,
      "ইয়ারে": 4098,
      "এগে": 4099,
      "এগি": 4100,
      "ক্যানে": 4101,
      "গুন": 4102,
      "গর্": 4103,
      "গির": 4104,
      "ছায়": 4105,
      "দৃ": 4106,
      "হুইন": 4107,
      "##টোর": 4108,
      "##ুদ্ধে": 4109,
      "##কৃ": 4110,
      "##লাগ": 4111,
      "বাফে": 4112,
      "##তিছি": 4113,
      "যাইতাছি": 4114,
      "লইয়েরে": 4115,
      "##িয়াল": 4116,
      "আসসা": 4117,
      "চাইয়া": 4118,
      "পর্যা": 4119,
      "বুঝো": 4120,
      "ক্ল": 4121,
      "নেশা": 4122,
      "পরিচিত": 4123,
      "গুলি": 4124,
      "জানিস": 4125,
      "উপস্থ": 4126,
      "ডিউটি": 4127,
      "আম্ম": 4128,
      "অর্ধে": 4129,
      "##ঞ্চাইশ": 4130,
      "##ভেন": 4131,
      "বিরুদ্ধে": 4132,
      "আন্টি": 4133,
      "খারণে": 4134,
      "প্রত্যে": 4135,
      "সাগর": 4136,
      "অশ": 4137,
      "ওদের": 4138,
      "কমে": 4139,
      "খউ": 4140,
      "গ্রা": 4141,
      "ন্যা": 4142,
      "ফাগ": 4143,
      "১০": 4144,
      "##করা": 4145,
      "##শান": 4146,
      "দিলাই": 4147,
      "##াম্": 4148,
      "করছিলাম": 4149,
      "যাইতা": 4150,
      "##সিস": 4151,
      "##শির": 4152,
      "তোমাদের": 4153,
      "আঁরারে": 4154,
      "পারব": 4155,
      "পারবি": 4156,
      "কার্য": 4157,
      "অনরে": 4158,
      "পাইলে": 4159,
      "##ভাবেই": 4160,
      "জিনিসের": 4161,
      "পানির": 4162,
      "খামু": 4163,
      "ঢাকাত": 4164,
      "বিদেশে": 4165,
      "ঘাট": 4166,
      "বান্ধ": 4167,
      "জাগার": 4168,
      "ঘোষণা": 4169,
      "ঘুইরা": 4170,
      "ফানলার": 4171,
      "হোটেল": 4172,
      "তেরো": 4173,
      "ফাইনাল": 4174,
      "চার্জ": 4175,
      "রমজান": 4176,
      "অসম্ভব": 4177,
      "দ্রুত": 4178,
      "অতা": 4179,
      "জব": 4180,
      "ঠি": 4181,
      "ডায়": 4182,
      "ত্যা": 4183,
      "দক্ষি": 4184,
      "ধুই": 4185,
      "যন্ত্র": 4186,
      "শার্ট": 4187,
      "সহালে": 4188,
      "হানা": 4189,
      "##বিন": 4190,
      "##নত": 4191,
      "##টটা": 4192,
      "##মাম": 4193,
      "##ওউ": 4194,
      "##ছার": 4195,
      "বাঙ": 4196,
      "দিদি": 4197,
      "আর্": 4198,
      "অইতে": 4199,
      "##েইজ": 4200,
      "সাপোর্ট": 4201,
      "ভাজি": 4202,
      "থাকবো": 4203,
      "হেনো": 4204,
      "সেখানে": 4205,
      "কীভাবে": 4206,
      "কয়টা": 4207,
      "ব্যাথা": 4208,
      "হেইর": 4209,
      "পরিষ্কার": 4210,
      "পরিমাণ": 4211,
      "কামলা": 4212,
      "ফেলায়": 4213,
      "শিশু": 4214,
      "দরহার": 4215,
      "মইরা": 4216,
      "দেশত": 4217,
      "দেওন": 4218,
      "##শ্চি": 4219,
      "ফারির": 4220,
      "সোজা": 4221,
      "অসুখ": 4222,
      "শরীল": 4223,
      "কোইয়ীদে": 4224,
      "স্টে": 4225,
      "থুইয়ে": 4226,
      "পার্টি": 4227,
      "উন্নত": 4228,
      "সাহেবের": 4229,
      "##যুক্তি": 4230,
      "দুর্": 4231,
      "কম্পি": 4232,
      "গুরুত্বপূর্ণ": 4233,
      "##প্টে": 4234,
      "শুক্রবার": 4235,
      "সহযোগিতা": 4236,
      "আড়াই": 4237,
      "ওডো": 4238,
      "ডেই": 4239,
      "তূর্য": 4240,
      "দারে": 4241,
      "বানি": 4242,
      "বস্তা": 4243,
      "লন": 4244,
      "সুই": 4245,
      "##তুর": 4246,
      "##বীর": 4247,
      "##নী": 4248,
      "##জায়": 4249,
      "##ন্নার": 4250,
      "একশ": 4251,
      "বিলাই": 4252,
      "আইলো": 4253,
      "বেঁ": 4254,
      "নিছি": 4255,
      "মানসিক": 4256,
      "##লামি": 4257,
      "বুড়ি": 4258,
      "বুজ্জ": 4259,
      "প্রকল্প": 4260,
      "খায়া": 4261,
      "মেডাম": 4262,
      "##জন্যে": 4263,
      "ফালায়": 4264,
      "##চ্ছেন": 4265,
      "চাট": 4266,
      "প্ৰ": 4267,
      "জানছ": 4268,
      "অ্যাঁরার": 4269,
      "##প্প": 4270,
      "ছেড়ে": 4271,
      "কুন্তা": 4272,
      "কুহানে": 4273,
      "ফারো": 4274,
      "জিত": 4275,
      "মারছে": 4276,
      "সবাইরে": 4277,
      "বানান": 4278,
      "সরখার": 4279,
      "ট্যাহার": 4280,
      "নানু": 4281,
      "খেউরে": 4282,
      "খুঁজে": 4283,
      "এলাকাত": 4284,
      "বেজ্ঞুনে": 4285,
      "প্রাইভেট": 4286,
      "আখতা": 4287,
      "ওয়াইফাই": 4288,
      "অরি": 4289,
      "ওকে": 4290,
      "কমু": 4291,
      "খওয়া": 4292,
      "ট্রা": 4293,
      "মদ্দি": 4294,
      "লস": 4295,
      "##োয়": 4296,
      "##ণী": 4297,
      "##হ্য": 4298,
      "##কোর": 4299,
      "##ওয়ে": 4300,
      "##উন্ড": 4301,
      "##ভূ": 4302,
      "##ফির": 4303,
      "##েরতে": 4304,
      "কিলো": 4305,
      "কিরোম": 4306,
      "##রাজ": 4307,
      "দিচ্ছি": 4308,
      "বিভাগ": 4309,
      "##লিম": 4310,
      "##নাদের": 4311,
      "যাইতাছে": 4312,
      "হাট": 4313,
      "এখবার": 4314,
      "##সাত": 4315,
      "##তারো": 4316,
      "##ম্মে": 4317,
      "জানান": 4318,
      "হেইদিন": 4319,
      "হিন্দু": 4320,
      "বোধ": 4321,
      "গাড়িত": 4322,
      "ঘরর": 4323,
      "সুময়": 4324,
      "এসো": 4325,
      "আউট": 4326,
      "আবহ": 4327,
      "রাষ্ট্রদ": 4328,
      "মাস্টার": 4329,
      "নিয়ম": 4330,
      "বিপদ": 4331,
      "শহরে": 4332,
      "২০১": 4333,
      "চিকিৎসা": 4334,
      "কইয়্যরে": 4335,
      "অনো": 4336,
      "অন্ধ": 4337,
      "আয": 4338,
      "ইগুলা": 4339,
      "এড": 4340,
      "ছাল": 4341,
      "ফড়াই": 4342,
      "ষো": 4343,
      "সের": 4344,
      "সুর": 4345,
      "সত্তুর": 4346,
      "##টেই": 4347,
      "##মারি": 4348,
      "##ইল": 4349,
      "##উয়ো": 4350,
      "##ছান": 4351,
      "##ছলা": 4352,
      "##অত": 4353,
      "দেকি": 4354,
      "##ুনের": 4355,
      "নিজি": 4356,
      "গেসি": 4357,
      "##ল্লেই": 4358,
      "##ত্ন": 4359,
      "ভাঙ্গি": 4360,
      "রাখা": 4361,
      "বুধ": 4362,
      "খইদে": 4363,
      "খরলে": 4364,
      "প্রশ": 4365,
      "হেল": 4366,
      "হেল্প": 4367,
      "কীতা": 4368,
      "##জেন": 4369,
      "##ক্ষার": 4370,
      "##চির": 4371,
      "দিনকাল": 4372,
      "পাইছি": 4373,
      "ক্যামনে": 4374,
      "করছেন": 4375,
      "জাপান": 4376,
      "বানায়": 4377,
      "আইসছি": 4378,
      "কাইট্টা": 4379,
      "খেলতে": 4380,
      "সহ্য": 4381,
      "দেকছি": 4382,
      "তুলতে": 4383,
      "##যুক্ত": 4384,
      "পুকুর": 4385,
      "সন্তান": 4386,
      "বাণিজ্য": 4387,
      "উপস্থিত": 4388,
      "আবু": 4389,
      "আচি": 4390,
      "আল্লার": 4391,
      "ইসি": 4392,
      "ঐতি": 4393,
      "খনে": 4394,
      "জনের": 4395,
      "তথ্য": 4396,
      "পল": 4397,
      "ফোর": 4398,
      "বরা": 4399,
      "ব্রে": 4400,
      "ভ্যান": 4401,
      "মেরে": 4402,
      "সূর্য": 4403,
      "##কদিন": 4404,
      "##ন্নের": 4405,
      "দিলা": 4406,
      "##ামারি": 4407,
      "বিরি": 4408,
      "বিষ্টি": 4409,
      "বিক্রি": 4410,
      "##লিছে": 4411,
      "##টিউ": 4412,
      "মানষ": 4413,
      "##কাপ": 4414,
      "রাত্তি": 4415,
      "তুইল্লা": 4416,
      "বাইত্তে": 4417,
      "আসছি": 4418,
      "পরিবর্": 4419,
      "##প্লাই": 4420,
      "##প্রিয়": 4421,
      "বোলিং": 4422,
      "স্বী": 4423,
      "ফোনে": 4424,
      "##্মদ": 4425,
      "সত্যিই": 4426,
      "রহম": 4427,
      "##খ্যাত": 4428,
      "বেশী": 4429,
      "নোয়ায়": 4430,
      "আইসসিল": 4431,
      "দৃশ্য": 4432,
      "অসা": 4433,
      "আচর": 4434,
      "এন্ডে": 4435,
      "ওনে": 4436,
      "ছাইন": 4437,
      "টিন": 4438,
      "ঢে": 4439,
      "পোই": 4440,
      "মরে": 4441,
      "শর্": 4442,
      "##রখম": 4443,
      "##যায়ী": 4444,
      "##পির": 4445,
      "##উগ": 4446,
      "##খির": 4447,
      "##ংকি": 4448,
      "কিয়ের": 4449,
      "দিয়াই": 4450,
      "দেশি": 4451,
      "করল": 4452,
      "আইব": 4453,
      "##লোত": 4454,
      "সাংবা": 4455,
      "রাত্রে": 4456,
      "প্রোগ": 4457,
      "প্রযুক্তি": 4458,
      "খাঁ": 4459,
      "বইলে": 4460,
      "##হির": 4461,
      "মাইজে": 4462,
      "ফুড়ি": 4463,
      "##চিশ": 4464,
      "কামের": 4465,
      "সম্মেল": 4466,
      "কুড়ি": 4467,
      "সেইটায়": 4468,
      "রাইখ": 4469,
      "ইয়্যত": 4470,
      "রিলে": 4471,
      "আইজগো": 4472,
      "মাইনসের": 4473,
      "যুক্ত": 4474,
      "যাবেনে": 4475,
      "ভুলি": 4476,
      "নানার": 4477,
      "তাকিয়ে": 4478,
      "সমাজ": 4479,
      "রুটি": 4480,
      "ভাল্লাগ": 4481,
      "করবাম": 4482,
      "বোঝে": 4483,
      "ঢাখা": 4484,
      "অবস্থায়": 4485,
      "মাহমু": 4486,
      "নিরাপ": 4487,
      "সুনামগঞ্জ": 4488,
      "শতাংশ": 4489,
      "সুপারিশ": 4490,
      "ইমুন": 4491,
      "এড্যা": 4492,
      "ঠাক": 4493,
      "নসুন্দি": 4494,
      "##তমান": 4495,
      "##োম": 4496,
      "##ইন্না": 4497,
      "##উই": 4498,
      "##ছন": 4499,
      "##থমে": 4500,
      "##ঁয়ার": 4501,
      "##ঘর": 4502,
      "এইন্না": 4503,
      "এইহানে": 4504,
      "এইহেনে": 4505,
      "##িনয়": 4506,
      "আরব": 4507,
      "আইসা": 4508,
      "অইছি": 4509,
      "##য়্যিন": 4510,
      "হইতো": 4511,
      "এখদিন": 4512,
      "এখবারে": 4513,
      "যাতো": 4514,
      "গাঁ": 4515,
      "ভালোয়": 4516,
      "সিঙ্গা": 4517,
      "মোটা": 4518,
      "মোহাম": 4519,
      "মিশ": 4520,
      "##ম্বার": 4521,
      "বুঝাই": 4522,
      "গিয়্যি": 4523,
      "কুব": 4524,
      "##গ্লা": 4525,
      "জাত": 4526,
      "ফুলের": 4527,
      "নাগবে": 4528,
      "কিরম": 4529,
      "জ্বালা": 4530,
      "কাইলকে": 4531,
      "হাসপাতাল": 4532,
      "পিছনে": 4533,
      "উল্টা": 4534,
      "ত্রিশ": 4535,
      "মকবুল": 4536,
      "অখ": 4537,
      "আকা": 4538,
      "উদা": 4539,
      "এয়্যা": 4540,
      "এদ্দুর": 4541,
      "ওক্টু": 4542,
      "কানা": 4543,
      "কওয়া": 4544,
      "গবে": 4545,
      "গন্ধ": 4546,
      "ডাকি": 4547,
      "তাকা": 4548,
      "পুন": 4549,
      "পয়েন্ট": 4550,
      "ফজর": 4551,
      "বৌ": 4552,
      "হবো": 4553,
      "##্কা": 4554,
      "##দব": 4555,
      "##গেই": 4556,
      "##খাই": 4557,
      "দিতু": 4558,
      "বিখ্যাত": 4559,
      "গেছোইন": 4560,
      "বুট": 4561,
      "খইছইন": 4562,
      "তোমাক": 4563,
      "খরছোইন": 4564,
      "খাবি": 4565,
      "দুইডে": 4566,
      "গরিয়েরে": 4567,
      "স্ত্রী": 4568,
      "##জনরে": 4569,
      "মোবাই": 4570,
      "দুকান": 4571,
      "দাদার": 4572,
      "আনতে": 4573,
      "জাতি": 4574,
      "কালো": 4575,
      "হেরার": 4576,
      "মতন": 4577,
      "বর্তমান": 4578,
      "অপারে": 4579,
      "##বর্তী": 4580,
      "উরদি": 4581,
      "জনগণ": 4582,
      "গ্রুপ": 4583,
      "যেকোনো": 4584,
      "আসসালামু": 4585,
      "আবাদ": 4586,
      "ক্যারে": 4587,
      "চুর": 4588,
      "ছাও": 4589,
      "টপ": 4590,
      "নজর": 4591,
      "ব্র": 4592,
      "বরিশ": 4593,
      "মরা": 4594,
      "সোনার": 4595,
      "##হীন": 4596,
      "##ডর": 4597,
      "##পুরি": 4598,
      "##খানি": 4599,
      "##ংকর": 4600,
      "##লাফ": 4601,
      "##রাধ": 4602,
      "দিবেন": 4603,
      "##টাত": 4604,
      "##ুমা": 4605,
      "আমিতো": 4606,
      "যাইয়ুম": 4607,
      "সাহাই": 4608,
      "এখে": 4609,
      "দেখতি": 4610,
      "বুড়া": 4611,
      "##শিদ": 4612,
      "স্বাদ": 4613,
      "বলার": 4614,
      "##গোরে": 4615,
      "ব্যাগ": 4616,
      "বুঝলাম": 4617,
      "হেইযে": 4618,
      "ব্যক্তি": 4619,
      "লেবু": 4620,
      "টিঁয়া": 4621,
      "##গ্রি": 4622,
      "নাকিতা": 4623,
      "বানাইয়া": 4624,
      "বন্ধুবান্": 4625,
      "আব্বার": 4626,
      "##শ্বাস": 4627,
      "ইতির": 4628,
      "ইউটিউ": 4629,
      "মিনিটে": 4630,
      "বৃষ্টির": 4631,
      "অনুযায়ী": 4632,
      "যাইব্যু": 4633,
      "অভ্যাস": 4634,
      "মাতাত": 4635,
      "চিটাং": 4636,
      "ভইরে": 4637,
      "রিকশা": 4638,
      "চাটগা": 4639,
      "অ্যাই": 4640,
      "আধা": 4641,
      "আলাইকুম": 4642,
      "এদিক": 4643,
      "এদিকে": 4644,
      "ওঠ": 4645,
      "গড়": 4646,
      "ড্যা": 4647,
      "দলের": 4648,
      "দূর্": 4649,
      "পরামর্শ": 4650,
      "ফুনি": 4651,
      "বড়ি": 4652,
      "রক্ত": 4653,
      "সৈ": 4654,
      "হির": 4655,
      "##বড়": 4656,
      "##হেই": 4657,
      "##হানো": 4658,
      "##খোর": 4659,
      "##য়ু": 4660,
      "##য়োগ": 4661,
      "##লাখান": 4662,
      "##লেহা": 4663,
      "দিয়ুম": 4664,
      "বিচ": 4665,
      "বিচি": 4666,
      "আইয়্য": 4667,
      "কইত্তে": 4668,
      "##লিয়া": 4669,
      "গেছো": 4670,
      "##সিডেন্ট": 4671,
      "হইলাম": 4672,
      "হইচে": 4673,
      "দেখছে": 4674,
      "হেদিন": 4675,
      "সেমি": 4676,
      "ভাইয়ে": 4677,
      "ভাইগ্": 4678,
      "এরপর": 4679,
      "মাইঝে": 4680,
      "বললে": 4681,
      "##ম্ম": 4682,
      "আপনে": 4683,
      "কারন": 4684,
      "ফিল": 4685,
      "##কুট": 4686,
      "ফারের": 4687,
      "রাখছে": 4688,
      "হাইরা": 4689,
      "দ্যাক": 4690,
      "ছোট্ট": 4691,
      "গেছিন": 4692,
      "জায়গার": 4693,
      "সহায়": 4694,
      "বর্তি": 4695,
      "এসেছি": 4696,
      "আপনারা": 4697,
      "##ব্বিশ": 4698,
      "কোর্স": 4699,
      "উফ্রে": 4700,
      "কায়দা": 4701,
      "ঠ্যাং": 4702,
      "দক্ষিণ": 4703,
      "অয়া": 4704,
      "অটো": 4705,
      "ইন্ট": 4706,
      "ইলিশ": 4707,
      "উড়": 4708,
      "এল্লা": 4709,
      "এন্ড": 4710,
      "কুল": 4711,
      "খান্": 4712,
      "গণ": 4713,
      "গভীর": 4714,
      "ছেরা": 4715,
      "ডাকা": 4716,
      "তৃ": 4717,
      "দুষ": 4718,
      "ফানির": 4719,
      "হান": 4720,
      "##লতে": 4721,
      "##ইছে": 4722,
      "##ইলে": 4723,
      "##হী": 4724,
      "##গরে": 4725,
      "##আমি": 4726,
      "##ওয়": 4727,
      "##উটার": 4728,
      "##াইতো": 4729,
      "নাচ": 4730,
      "এইভাবে": 4731,
      "যেনো": 4732,
      "বিজ": 4733,
      "আইচ্চে": 4734,
      "##স্টি": 4735,
      "##য়্যুস": 4736,
      "##র্ঘ": 4737,
      "কেন্দ্র": 4738,
      "এখলগে": 4739,
      "যায়াম": 4740,
      "বুচ্ছি": 4741,
      "করেছেন": 4742,
      "পাবো": 4743,
      "থাকার": 4744,
      "কোনা": 4745,
      "##সাব": 4746,
      "আপনাদের": 4747,
      "দুক": 4748,
      "জানতাম": 4749,
      "পরিস্থিতি": 4750,
      "গুজ": 4751,
      "ভিক্ষা": 4752,
      "ছোউক": 4753,
      "##পাশি": 4754,
      "##দ্ধা": 4755,
      "ক্যাম্": 4756,
      "মারামারি": 4757,
      "চেহারা": 4758,
      "ছাইড়া": 4759,
      "উইট্টা": 4760,
      "হোলা": 4761,
      "বাজারের": 4762,
      "আলী": 4763,
      "একাউ": 4764,
      "ইস্কুলে": 4765,
      "জন্মদিন": 4766,
      "হারাদিন": 4767,
      "গার্ল": 4768,
      "হুইন্না": 4769,
      "নরসিংদী": 4770,
      "মাধ্যমে": 4771,
      "সদস্য": 4772,
      "বেশিরভাগ": 4773,
      "চড়": 4774,
      "ব্": 4775,
      "##ট্যা": 4776,
      "##গুম": 4777,
      "##গ্রহ": 4778,
      "##কী": 4779,
      "কিসের": 4780,
      "দিয়্যুম": 4781,
      "##য়েজ": 4782,
      "এককান": 4783,
      "##ামো": 4784,
      "বিয়্যা": 4785,
      "আইবু": 4786,
      "মাতি": 4787,
      "##কেলে": 4788,
      "##ল্লাম": 4789,
      "##বিত": 4790,
      "সবই": 4791,
      "##ডিয়া": 4792,
      "তাতে": 4793,
      "খাবে": 4794,
      "বাইশ": 4795,
      "বাইরা": 4796,
      "গরিতে": 4797,
      "ভাইঙ্গা": 4798,
      "##িনিধি": 4799,
      "এরার": 4800,
      "গরর": 4801,
      "তুয়ার": 4802,
      "ফেলা": 4803,
      "জিগ": 4804,
      "গোনে": 4805,
      "সাম্": 4806,
      "উপায়": 4807,
      "দেশোর": 4808,
      "কেউর": 4809,
      "##স্থ্য": 4810,
      "জীবনের": 4811,
      "মামু": 4812,
      "জনপ্রিয়": 4813,
      "দেহায়": 4814,
      "গরমের": 4815,
      "কলেজের": 4816,
      "দাঁড়া": 4817,
      "ইয়েন": 4818,
      "পালন": 4819,
      "কাউকে": 4820,
      "গোইজ্জি": 4821,
      "ভূমি": 4822,
      "পৃথিবী": 4823,
      "শ্বাস": 4824,
      "অম": 4825,
      "ইয়ের": 4826,
      "কুক": 4827,
      "গঠ": 4828,
      "জম্": 4829,
      "তিকা": 4830,
      "নম্বর": 4831,
      "পান্": 4832,
      "পাকি": 4833,
      "মতে": 4834,
      "##বণ": 4835,
      "##মহি": 4836,
      "##ণ্ট": 4837,
      "##দরে": 4838,
      "##ক্য": 4839,
      "##জিন": 4840,
      "নাতি": 4841,
      "কিপ": 4842,
      "বাচ": 4843,
      "বাতি": 4844,
      "বাপে": 4845,
      "##তেয়াছে": 4846,
      "দিয়েরে": 4847,
      "এইন": 4848,
      "বিতরে": 4849,
      "বিএন": 4850,
      "মাসি": 4851,
      "লাগায়": 4852,
      "গেলা": 4853,
      "যাইরাম": 4854,
      "খইবা": 4855,
      "পাশা": 4856,
      "##বুক": 4857,
      "খাইবে": 4858,
      "খাইলাম": 4859,
      "গরিস": 4860,
      "##জালাল": 4861,
      "মিয়ান": 4862,
      "ফাস": 4863,
      "ব্যাচ": 4864,
      "ব্যাটা": 4865,
      "ব্যাপারে": 4866,
      "দিয়েছে": 4867,
      "কুনডা": 4868,
      "টিভি": 4869,
      "##্যান্ট": 4870,
      "করায়": 4871,
      "মামলা": 4872,
      "দেহির": 4873,
      "গইরজুম": 4874,
      "গেছিল": 4875,
      "জেনারে": 4876,
      "ফোয়ারে": 4877,
      "নিজেও": 4878,
      "বিদ্যাল": 4879,
      "জীবনেও": 4880,
      "কয়েকটা": 4881,
      "ভদ্রমহি": 4882,
      "সালামি": 4883,
      "ফুরান": 4884,
      "ওয়েব": 4885,
      "সপ্তাহে": 4886,
      "ডইল্লে": 4887,
      "রূপ": 4888,
      "মৃত্যু": 4889,
      "রাষ্ট্রদূত": 4890,
      "অক": 4891,
      "আয়োজন": 4892,
      "ইচ্চা": 4893,
      "গফ": 4894,
      "গতি": 4895,
      "তায়": 4896,
      "পিক": 4897,
      "সত": 4898,
      "সোনা": 4899,
      "হ্যারে": 4900,
      "##টপ": 4901,
      "##দল": 4902,
      "##ুয়া": 4903,
      "##শাক": 4904,
      "##ংসা": 4905,
      "দিতাছে": 4906,
      "বিফ": 4907,
      "বিকাল": 4908,
      "আইল": 4909,
      "আইছো": 4910,
      "নিবে": 4911,
      "নিগা": 4912,
      "কাটি": 4913,
      "সাজাই": 4914,
      "হাবি": 4915,
      "##র্রা": 4916,
      "এখলা": 4917,
      "খইছি": 4918,
      "##গাং": 4919,
      "কোনডা": 4920,
      "হেন": 4921,
      "সুস্থ": 4922,
      "স্মর": 4923,
      "সিনে": 4924,
      "##মাস": 4925,
      "বলেছেন": 4926,
      "কারনে": 4927,
      "দেইহে": 4928,
      "পাইবেন": 4929,
      "ফিলি": 4930,
      "##পাস": 4931,
      "টিকি": 4932,
      "আজকের": 4933,
      "আম্মের": 4934,
      "অরতি": 4935,
      "ঘুমা": 4936,
      "বাইরের": 4937,
      "সুমন": 4938,
      "ফড়ছে": 4939,
      "বহু": 4940,
      "জীবনত": 4941,
      "প্রেস": 4942,
      "বাড়ছে": 4943,
      "জোরে": 4944,
      "কাইলকা": 4945,
      "মূল্য": 4946,
      "মাঠে": 4947,
      "চাঁদ": 4948,
      "##জীবন": 4949,
      "বুলবুল": 4950,
      "চাচতো": 4951,
      "এগিয়ে": 4952,
      "সাংবাদিক": 4953,
      "বন্ধুবান্ধব": 4954,
      "মিয়ানমার": 4955,
      "অঁ": 4956,
      "অঅ": 4957,
      "উদ": 4958,
      "ওখানে": 4959,
      "খ্যা": 4960,
      "ছিনি": 4961,
      "ঝড়": 4962,
      "দম": 4963,
      "পালি": 4964,
      "ফকির": 4965,
      "ভরি": 4966,
      "রওনা": 4967,
      "##বলা": 4968,
      "##কট": 4969,
      "##ওইন": 4970,
      "##সান": 4971,
      "##জম": 4972,
      "##ফাল": 4973,
      "বাহে": 4974,
      "##তেন": 4975,
      "দিবের": 4976,
      "এইচ": 4977,
      "আইত": 4978,
      "আইন্নের": 4979,
      "অইয়্যি": 4980,
      "ওইরকম": 4981,
      "লাগলে": 4982,
      "##ল্ফ": 4983,
      "তুমাগে": 4984,
      "কেমুন": 4985,
      "##ন্দন": 4986,
      "##ন্দার": 4987,
      "##শিং": 4988,
      "হেব্বি": 4989,
      "মুস": 4990,
      "বইসা": 4991,
      "বইনের": 4992,
      "##হিদা": 4993,
      "কয়জন": 4994,
      "বলবে": 4995,
      "##গুণ": 4996,
      "ছাখ": 4997,
      "ব্যাক": 4998,
      "পরী": 4999,
      "লাফ": 5000,
      "নেতৃ": 5001,
      "বউর": 5002,
      "টিম": 5003,
      "রাখার": 5004,
      "##ক্কান": 5005,
      "সাইড": 5006,
      "আম্মার": 5007,
      "ধরছে": 5008,
      "##াকিব": 5009,
      "##পিং": 5010,
      "ঘুমায়": 5011,
      "ক্ষু": 5012,
      "ক্ষুর": 5013,
      "কাইটে": 5014,
      "অর্জন": 5015,
      "বিশ্বে": 5016,
      "ভালোবাসার": 5017,
      "বানাইছে": 5018,
      "তারপরেও": 5019,
      "##ুষ্টি": 5020,
      "হালার": 5021,
      "মুরগির": 5022,
      "টিকটক": 5023,
      "বালবা": 5024,
      "দুর্ব": 5025,
      "কর্মকর্": 5026,
      "কোইলাম": 5027,
      "কাউরে": 5028,
      "নিশ্চয়": 5029,
      "পাসপোর্ট": 5030,
      "চেয়ারম্যান": 5031,
      "জিরো": 5032,
      "সিরিয়াস": 5033,
      "জরুরি": 5034,
      "আবহাওয়া": 5035,
      "পাশাপাশি": 5036,
      "অদ্": 5037,
      "অওয়ার": 5038,
      "এন্তে": 5039,
      "কৌ": 5040,
      "কলো": 5041,
      "ডঁর": 5042,
      "দও": 5043,
      "দ্ব": 5044,
      "ফলে": 5045,
      "বৎ": 5046,
      "বসি": 5047,
      "ভ্রম": 5048,
      "মৈ": 5049,
      "শৈ": 5050,
      "শক্ত": 5051,
      "সড়": 5052,
      "স্যা": 5053,
      "হরো": 5054,
      "##তারা": 5055,
      "##দনা": 5056,
      "##শোনা": 5057,
      "##আম": 5058,
      "##ডেই": 5059,
      "##ছত": 5060,
      "##ফড়": 5061,
      "##ধুর": 5062,
      "##ৃদ্ধি": 5063,
      "##ন্টি": 5064,
      "বাড়ে": 5065,
      "দিলেন": 5066,
      "##রিক্ত": 5067,
      "##াগি": 5068,
      "##াগত": 5069,
      "করলি": 5070,
      "করোন": 5071,
      "করতার": 5072,
      "##ক্তা": 5073,
      "নিঃ": 5074,
      "অইলাম": 5075,
      "কইল": 5076,
      "##ত্তু": 5077,
      "যাইউম": 5078,
      "নাইম": 5079,
      "##য়্যু": 5080,
      "##র্শন": 5081,
      "কেনো": 5082,
      "যাবেন": 5083,
      "##শিয়া": 5084,
      "খুলে": 5085,
      "মানুষজন": 5086,
      "সিলো": 5087,
      "##ল্লায়": 5088,
      "##ম্ব": 5089,
      "ছাছা": 5090,
      "দিনর": 5091,
      "##ছোং": 5092,
      "কোচিং": 5093,
      "সুন্দরী": 5094,
      "ব্যথা": 5095,
      "সামা": 5096,
      "##ক্কুন": 5097,
      "থেকি": 5098,
      "দ্যাহো": 5099,
      "যুগ": 5100,
      "শেয়ার": 5101,
      "##ূরণ": 5102,
      "সোম": 5103,
      "রাস্তাত": 5104,
      "ফালাইয়া": 5105,
      "খিতা": 5106,
      "অবেনে": 5107,
      "থিয়াই": 5108,
      "##কল্পনা": 5109,
      "বৃহ": 5110,
      "অসাধারণ": 5111,
      "মোহাম্মদ": 5112,
      "অখল": 5113,
      "উডে": 5114,
      "এভাবে": 5115,
      "ওন": 5116,
      "জয়": 5117,
      "জাইন": 5118,
      "দারো": 5119,
      "পূ": 5120,
      "পলা": 5121,
      "বঊ": 5122,
      "বুইন": 5123,
      "মহ": 5124,
      "য্যা": 5125,
      "লও": 5126,
      "লায়": 5127,
      "সন্": 5128,
      "##ত্যে": 5129,
      "##ব্যা": 5130,
      "##রুম": 5131,
      "##ণ্য": 5132,
      "##ছনা": 5133,
      "##ভারে": 5134,
      "##জন্ত": 5135,
      "##চক": 5136,
      "##তাত": 5137,
      "দিয়ার": 5138,
      "##ুমি": 5139,
      "বিকালে": 5140,
      "করসে": 5141,
      "##ক্রে": 5142,
      "মাং": 5143,
      "নিতো": 5144,
      "কইয়ে": 5145,
      "কইবে": 5146,
      "##ড়িয়া": 5147,
      "লাগাইছে": 5148,
      "##ত্তার": 5149,
      "সমে": 5150,
      "সমর্থ": 5151,
      "যাইয়েরে": 5152,
      "তারিক": 5153,
      "হালায়": 5154,
      "তোমরার": 5155,
      "##ান্ড": 5156,
      "থাকলি": 5157,
      "তাখি": 5158,
      "মেসে": 5159,
      "আবারো": 5160,
      "লাস্টে": 5161,
      "দুহান": 5162,
      "নেও": 5163,
      "ফাইভ": 5164,
      "ফাইলে": 5165,
      "বউরে": 5166,
      "গুড়া": 5167,
      "ছেড়া": 5168,
      "বাংলাদেশোর": 5169,
      "##ষ্ণ": 5170,
      "গোল": 5171,
      "মাঝখানে": 5172,
      "বারোই": 5173,
      "শুক্কুর": 5174,
      "শাহিন": 5175,
      "শুনা": 5176,
      "টাইমে": 5177,
      "##পুরের": 5178,
      "সোহ": 5179,
      "কলেজত": 5180,
      "ইকান": 5181,
      "##ঁইয়া": 5182,
      "মার্কেট": 5183,
      "ঢুকে": 5184,
      "প্রতিনিধি": 5185,
      "সুখী": 5186,
      "শহরের": 5187,
      "ঘরোত": 5188,
      "আবেগ": 5189,
      "শাহজালাল": 5190,
      "দীর্ঘ": 5191,
      "মাদ্রা": 5192,
      "খালামনি": 5193,
      "আঠারো": 5194,
      "অর্থনৈতিক": 5195,
      "অর্ধেক": 5196,
      "বুধবার": 5197,
      "পরিবর্তন": 5198,
      "স্বীকার": 5199,
      "স্মরণ": 5200,
      "আবা": 5201,
      "আনার": 5202,
      "ইম": 5203,
      "খাইন": 5204,
      "চর": 5205,
      "দুনি": 5206,
      "ধারো": 5207,
      "নগ": 5208,
      "যৌ": 5209,
      "যত্ন": 5210,
      "সৃষ্টি": 5211,
      "হও": 5212,
      "১১": 5213,
      "##লদি": 5214,
      "##কাইল": 5215,
      "##ূন্য": 5216,
      "##ঝা": 5217,
      "##ছেলো": 5218,
      "##তাল": 5219,
      "দেলো": 5220,
      "দেয়ার": 5221,
      "করাই": 5222,
      "করবার": 5223,
      "##ল্ড": 5224,
      "সাথ": 5225,
      "##য়্যস": 5226,
      "কেক": 5227,
      "কেও": 5228,
      "##কিং": 5229,
      "খইলে": 5230,
      "##হাজার": 5231,
      "একটাহ": 5232,
      "সেতু": 5233,
      "##নেরো": 5234,
      "দুইজনে": 5235,
      "খাইতো": 5236,
      "লাইছে": 5237,
      "স্থা": 5238,
      "মানুষে": 5239,
      "##হিদ": 5240,
      "ফুড": 5241,
      "##মেট": 5242,
      "দুয়ো": 5243,
      "জানিনা": 5244,
      "জানায়ি": 5245,
      "গুছ": 5246,
      "##প্রে": 5247,
      "অনার্স": 5248,
      "এক্কে": 5249,
      "এলাও": 5250,
      "সামান্য": 5251,
      "শুদ্ধ": 5252,
      "ডাটা": 5253,
      "পারিস": 5254,
      "এমুন": 5255,
      "রোড": 5256,
      "কিনছি": 5257,
      "তাইনোর": 5258,
      "লোকটা": 5259,
      "এসএসসি": 5260,
      "##পার্ট": 5261,
      "##তিকগিন": 5262,
      "বারোটা": 5263,
      "জ্বাল": 5264,
      "সরকারের": 5265,
      "অভিযোগ": 5266,
      "খইনছাইন": 5267,
      "ঠেং": 5268,
      "হারাপ": 5269,
      "##শালী": 5270,
      "গইজ্জুম": 5271,
      "সাহাইয্য": 5272,
      "নিশ্চয়ই": 5273,
      "ইদের": 5274,
      "এসি": 5275,
      "কমেন্ট": 5276,
      "খাকি": 5277,
      "গৃ": 5278,
      "গাল": 5279,
      "চারা": 5280,
      "ঠো": 5281,
      "থুন": 5282,
      "পতি": 5283,
      "পূর্ণ": 5284,
      "ফাগল": 5285,
      "লবন": 5286,
      "##লিন": 5287,
      "##রী": 5288,
      "##রহম": 5289,
      "##টকা": 5290,
      "##রাত": 5291,
      "দিছিলাম": 5292,
      "আইয়্যে": 5293,
      "##স্ত্র": 5294,
      "বেড়ায়": 5295,
      "##গেট": 5296,
      "লাগতাছে": 5297,
      "##ল্লো": 5298,
      "সমস্যার": 5299,
      "সাপ্তা": 5300,
      "##য়্যান": 5301,
      "রাতি": 5302,
      "##কিয়ে": 5303,
      "খইত": 5304,
      "পাতি": 5305,
      "গাছর": 5306,
      "মেয়র": 5307,
      "কিছুদিন": 5308,
      "সিক্স": 5309,
      "বইটা": 5310,
      "মিল্লা": 5311,
      "ফুয়ার": 5312,
      "রেগুলার": 5313,
      "দেইখ্যা": 5314,
      "ঠিকই": 5315,
      "##্যানু": 5316,
      "হাইতে": 5317,
      "ধরণ": 5318,
      "##ুরিয়া": 5319,
      "মতোন": 5320,
      "আইজো": 5321,
      "হরতে": 5322,
      "সম্প্র": 5323,
      "সম্পত্তি": 5324,
      "মাইয়াফো": 5325,
      "##ল্লেহ": 5326,
      "কইরতে": 5327,
      "বুঝিছো": 5328,
      "খেউর": 5329,
      "এম্মে": 5330,
      "অফিসার": 5331,
      "বালোই": 5332,
      "পাওয়ার": 5333,
      "হিসেব": 5334,
      "সর্বো": 5335,
      "গোইজজুম": 5336,
      "চালাক": 5337,
      "খইয়্যেদে": 5338,
      "বইসসি": 5339,
      "রসুন": 5340,
      "আদাল": 5341,
      "শনিবার": 5342,
      "টাঙ্গাইল": 5343,
      "আচরণ": 5344,
      "আক": 5345,
      "আলার": 5346,
      "আস্তা": 5347,
      "আয়ো": 5348,
      "ইঞ্জ": 5349,
      "ইয়্যা": 5350,
      "এনু": 5351,
      "ওবায়": 5352,
      "কার্": 5353,
      "ঝি": 5354,
      "ট্রাই": 5355,
      "দৈ": 5356,
      "নারে": 5357,
      "প্যারা": 5358,
      "বরি": 5359,
      "ভ্যা": 5360,
      "মজ": 5361,
      "সউগ": 5362,
      "##তনে": 5363,
      "##টনা": 5364,
      "##হাও": 5365,
      "##দারে": 5366,
      "##গাইয়া": 5367,
      "##শনি": 5368,
      "##পত্র": 5369,
      "##সঙ্গ": 5370,
      "##ফ্রে": 5371,
      "##চাল": 5372,
      "##ধানে": 5373,
      "##অন": 5374,
      "##য়নের": 5375,
      "কিংবা": 5376,
      "তোগো": 5377,
      "বাব": 5378,
      "বাবুর": 5379,
      "##ছিলে": 5380,
      "যেলা": 5381,
      "বিবি": 5382,
      "মাপ": 5383,
      "বেগুন": 5384,
      "ওইহেনে": 5385,
      "কইতা": 5386,
      "কইলেন": 5387,
      "##লিল": 5388,
      "যাইতু": 5389,
      "হাসা": 5390,
      "কেস": 5391,
      "কেবল": 5392,
      "##কিয়া": 5393,
      "খরবো": 5394,
      "প্রচ": 5395,
      "থাকতি": 5396,
      "বাইয়ে": 5397,
      "ভাইরা": 5398,
      "মুক": 5399,
      "বলবেন": 5400,
      "অনেকেই": 5401,
      "চাচি": 5402,
      "আরেট্টা": 5403,
      "দাদুর": 5404,
      "গইত্তে": 5405,
      "এখনও": 5406,
      "##প্রা": 5407,
      "বাংলাদেশত": 5408,
      "আগাই": 5409,
      "রাইতের": 5410,
      "পিছে": 5411,
      "পোলার": 5412,
      "আব্দু": 5413,
      "বিয়েতে": 5414,
      "সাবজেক্ট": 5415,
      "আটটা": 5416,
      "খেলতাম": 5417,
      "চিন্তাভাবনা": 5418,
      "শরী": 5419,
      "সাতটা": 5420,
      "দোকানে": 5421,
      "কাঁঠ": 5422,
      "দৌড়া": 5423,
      "ছুডুবেলা": 5424,
      "কম্বল": 5425,
      "অতিরিক্ত": 5426,
      "বিপদে": 5427,
      "বিস্কুট": 5428,
      "চিটাগাং": 5429,
      "লক্ষ্য": 5430,
      "থেইকা": 5431,
      "জ্ঞান": 5432,
      "##স্তুত": 5433,
      "আঙ্গো": 5434,
      "কম্পিউটার": 5435,
      "ডেইলি": 5436,
      "বেঁচে": 5437,
      "অপারেশন": 5438,
      "সিনেমা": 5439,
      "দুর্বল": 5440,
      "অনি": 5441,
      "অংক": 5442,
      "আধ": 5443,
      "আদা": 5444,
      "ইত্ত": 5445,
      "এনি": 5446,
      "ওতার": 5447,
      "ওমার": 5448,
      "কছ": 5449,
      "গাও": 5450,
      "চালি": 5451,
      "ডরে": 5452,
      "ডলার": 5453,
      "নুন": 5454,
      "পোর": 5455,
      "ভয়ে": 5456,
      "মুন": 5457,
      "শোনো": 5458,
      "##হ্যাঁ": 5459,
      "##উজ": 5460,
      "##সঙ্গে": 5461,
      "##ছাল": 5462,
      "##ানু": 5463,
      "##ড়াইয়া": 5464,
      "দিলেই": 5465,
      "একছের": 5466,
      "মায়ে": 5467,
      "মাডি": 5468,
      "বেচে": 5469,
      "অইবে": 5470,
      "হইলেও": 5471,
      "##হাদ": 5472,
      "##ুলাই": 5473,
      "গাজী": 5474,
      "##ঙ্ক": 5475,
      "গরিবি": 5476,
      "বইয়ের": 5477,
      "মিলাইয়া": 5478,
      "##ন্যার": 5479,
      "বলব": 5480,
      "##ম্বু": 5481,
      "ফাউ": 5482,
      "আগেও": 5483,
      "ব্যায়া": 5484,
      "দাদি": 5485,
      "কোম": 5486,
      "গুণ": 5487,
      "কামে": 5488,
      "##রোধ": 5489,
      "গেইলাম": 5490,
      "টিপ": 5491,
      "ফারতো": 5492,
      "আনছি": 5493,
      "উপকার": 5494,
      "তোঁরে": 5495,
      "ওরম": 5496,
      "ডিসি": 5497,
      "সবাইকে": 5498,
      "সংবাদ": 5499,
      "গানের": 5500,
      "##ঁচু": 5501,
      "কমপ্": 5502,
      "থাকিস": 5503,
      "কালিয়া": 5504,
      "পেলে": 5505,
      "আছাল": 5506,
      "আছইন": 5507,
      "শুনতে": 5508,
      "ফইড়ে": 5509,
      "হাসতে": 5510,
      "আসিস": 5511,
      "ভুট": 5512,
      "##ন্দিয়া": 5513,
      "নিজেকে": 5514,
      "পড়ালেখা": 5515,
      "হারাম": 5516,
      "ইতেরা": 5517,
      "ফইরজন্ত": 5518,
      "বাফোর": 5519,
      "হাঁট": 5520,
      "সৌন্দর": 5521,
      "শিক্ষক": 5522,
      "রাষ্ট্রপতি": 5523,
      "ঘুইরে": 5524,
      "##াতত": 5525,
      "সন্ধ্যা": 5526,
      "##শাল্লা": 5527,
      "হানিফ": 5528,
      "অথচ": 5529,
      "শয়তান": 5530,
      "উপজেলার": 5531,
      "কহনো": 5532,
      "বরিশাল": 5533,
      "ভদ্রমহিলা": 5534,
      "বৎসর": 5535,
      "এলো": 5536,
      "এনা": 5537,
      "এত্তো": 5538,
      "এব্ব": 5539,
      "কলাম": 5540,
      "কম্প": 5541,
      "কথার": 5542,
      "গন্টা": 5543,
      "জুন": 5544,
      "জার্": 5545,
      "ট্রি": 5546,
      "থিক": 5547,
      "নন": 5548,
      "বারে": 5549,
      "সূ": 5550,
      "সদর": 5551,
      "হিক": 5552,
      "হাওয়া": 5553,
      "##ল্যা": 5554,
      "##ীরা": 5555,
      "##গিয়া": 5556,
      "##কিন": 5557,
      "##শতা": 5558,
      "##ঁটে": 5559,
      "##রেও": 5560,
      "বালাই": 5561,
      "##ছিলেন": 5562,
      "##ুম্": 5563,
      "করমো": 5564,
      "##লোই": 5565,
      "##বাহ": 5566,
      "##বাজ": 5567,
      "ওইখানে": 5568,
      "##লিও": 5569,
      "##লিশে": 5570,
      "আছেনা": 5571,
      "##টিল": 5572,
      "সমস্ত": 5573,
      "সাজ": 5574,
      "হইবার": 5575,
      "দেখায়": 5576,
      "রাহ": 5577,
      "সবকি": 5578,
      "##ুলের": 5579,
      "পাতলা": 5580,
      "হেডা": 5581,
      "বাইঙ্গা": 5582,
      "দুইবার": 5583,
      "গরিয়ারে": 5584,
      "মেহ": 5585,
      "টেখার": 5586,
      "##জাজ": 5587,
      "মুড়ি": 5588,
      "##হেল": 5589,
      "মিয়ার": 5590,
      "বললো": 5591,
      "বলবো": 5592,
      "তেত": 5593,
      "সময়ত": 5594,
      "ছাদ": 5595,
      "আপনের": 5596,
      "##ঞ্জি": 5597,
      "পারমু": 5598,
      "পরিকল্পনা": 5599,
      "ফরীক্ষা": 5600,
      "দেইক": 5601,
      "ঠিকানা": 5602,
      "কুনতা": 5603,
      "লেভে": 5604,
      "##ওয়ালা": 5605,
      "ফরিক্কার": 5606,
      "কাজেই": 5607,
      "গোডা": 5608,
      "হাইবি": 5609,
      "মারতে": 5610,
      "মনোযোগ": 5611,
      "রোজার": 5612,
      "ফইড়া": 5613,
      "টাইপ": 5614,
      "পড়েছে": 5615,
      "হাল্কা": 5616,
      "মাজেদা": 5617,
      "একেবারে": 5618,
      "জানালা": 5619,
      "চালু": 5620,
      "কাওয়াই": 5621,
      "ভালবাসি": 5622,
      "বার্সিটিত": 5623,
      "চট্টগ্রামের": 5624,
      "ইফতার": 5625,
      "বাঙালি": 5626,
      "উদাহর": 5627,
      "এব্বেরে": 5628,
      "আগা": 5629,
      "উনু": 5630,
      "এবো": 5631,
      "কেই": 5632,
      "খুন": 5633,
      "গলার": 5634,
      "ঘন": 5635,
      "জই": 5636,
      "টুই": 5637,
      "টানি": 5638,
      "তুর": 5639,
      "ধাক্কা": 5640,
      "ফাকি": 5641,
      "বারা": 5642,
      "ভরা": 5643,
      "মন্": 5644,
      "মোন": 5645,
      "যর": 5646,
      "রোই": 5647,
      "শাগ": 5648,
      "শাকি": 5649,
      "সোন": 5650,
      "##বোর": 5651,
      "##নোর": 5652,
      "##ট্রা": 5653,
      "##যি": 5654,
      "##গী": 5655,
      "##আন": 5656,
      "##আরে": 5657,
      "##ভুত": 5658,
      "##ংগা": 5659,
      "##য়ানা": 5660,
      "##ড়ী": 5661,
      "##ড়াল": 5662,
      "বাটি": 5663,
      "বাবারে": 5664,
      "এইগুলা": 5665,
      "আরহি": 5666,
      "আমিই": 5667,
      "আইর": 5668,
      "##তিত": 5669,
      "##বারি": 5670,
      "বেটার": 5671,
      "ওইদিন": 5672,
      "##ড়িত": 5673,
      "##গেছে": 5674,
      "হাফ": 5675,
      "##ন্দো": 5676,
      "যাছ": 5677,
      "খইদি": 5678,
      "খরছ": 5679,
      "প্রথমে": 5680,
      "##াইনমেন্ট": 5681,
      "কোনটা": 5682,
      "##ক্ষিত": 5683,
      "##ন্যে": 5684,
      "গরমে": 5685,
      "চাহিদা": 5686,
      "ইয়াও": 5687,
      "হেইয়ার": 5688,
      "পরিব": 5689,
      "##স্ট্রি": 5690,
      "ফিরা": 5691,
      "বোলে": 5692,
      "ফাররাম": 5693,
      "কতাডা": 5694,
      "এলাখা": 5695,
      "চেক": 5696,
      "স্বাক্ষ": 5697,
      "পারিবেন": 5698,
      "হুধু": 5699,
      "গইরতু": 5700,
      "কিনতাম": 5701,
      "চাইরটা": 5702,
      "সম্পদ": 5703,
      "প্রতিষ্ঠ": 5704,
      "থাইকা": 5705,
      "হ্যালো": 5706,
      "হুনছি": 5707,
      "হাতত": 5708,
      "##জ্জুম": 5709,
      "রান্দা": 5710,
      "বুইজ্জি": 5711,
      "পইড়": 5712,
      "বান্ধব": 5713,
      "##ণ্ডা": 5714,
      "চিনো": 5715,
      "অভিনয়": 5716,
      "ভার্সিটিত": 5717,
      "চ্যাং": 5718,
      "দইরা": 5719,
      "ফেইল": 5720,
      "বৈঠক": 5721,
      "লীগ": 5722,
      "সাইরদি": 5723,
      "ফ্লাই": 5724,
      "উদ্দেশে": 5725,
      "কিশোরগঞ্জ": 5726,
      "ক্লান্ত": 5727,
      "গ্রামে": 5728,
      "জম্মের": 5729,
      "জেনারেল": 5730,
      "সর্বোচ্চ": 5731,
      "আটা": 5732,
      "ওরি": 5733,
      "ওনো": 5734,
      "ওখান": 5735,
      "কং": 5736,
      "কওয়ার": 5737,
      "কুরো": 5738,
      "গ্": 5739,
      "চশ": 5740,
      "চোক": 5741,
      "ছলে": 5742,
      "জিয়া": 5743,
      "ফসল": 5744,
      "বংশ": 5745,
      "লজ্জা": 5746,
      "সাক্": 5747,
      "##বক": 5748,
      "##মাল": 5749,
      "##ইয়ান": 5750,
      "##যন্ত": 5751,
      "##ৃদ্ধ": 5752,
      "##াইতাম": 5753,
      "কিস": 5754,
      "##লেস": 5755,
      "দেতে": 5756,
      "এইগলে": 5757,
      "যেত": 5758,
      "বিস": 5759,
      "করসি": 5760,
      "করবু": 5761,
      "করলেন": 5762,
      "আইতাম": 5763,
      "আইয়েরে": 5764,
      "##্রু": 5765,
      "##বারের": 5766,
      "##স্টিক": 5767,
      "বেকার": 5768,
      "নিতি": 5769,
      "নিকি": 5770,
      "##লিট": 5771,
      "##লিয়ার": 5772,
      "লাগত": 5773,
      "লাগসে": 5774,
      "##দেন": 5775,
      "##নাথ": 5776,
      "##োরো": 5777,
      "যাইগা": 5778,
      "আসুন": 5779,
      "চাইছে": 5780,
      "মাইরে": 5781,
      "আঁইও": 5782,
      "গরীব": 5783,
      "বলদ": 5784,
      "##লাইছে": 5785,
      "অনেকদিন": 5786,
      "##চিস": 5787,
      "মুইও": 5788,
      "জানু": 5789,
      "চিৎকার": 5790,
      "নেছে": 5791,
      "ঠিকমতো": 5792,
      "টিকা": 5793,
      "মইধ্য": 5794,
      "##শাআ": 5795,
      "পড়বে": 5796,
      "ডিপার্ট": 5797,
      "##ন্নাই": 5798,
      "ছুরি": 5799,
      "জাতের": 5800,
      "জাতির": 5801,
      "##ুরিস্ট": 5802,
      "দোহান": 5803,
      "ডাহা": 5804,
      "##দ্দার": 5805,
      "চলবে": 5806,
      "##খিত": 5807,
      "এহনা": 5808,
      "নাগছে": 5809,
      "কলম": 5810,
      "ভেতর": 5811,
      "##ক্ষেপ": 5812,
      "স্কুলের": 5813,
      "বোঝা": 5814,
      "খুলনা": 5815,
      "বিস্মিত": 5816,
      "কৃষ": 5817,
      "কৃষি": 5818,
      "বিশ্ববিদ্যালয়": 5819,
      "ভালবাসে": 5820,
      "সপ্তাহ": 5821,
      "জনগণের": 5822,
      "মেডিকেল": 5823,
      "মানাুষ": 5824,
      "গেরামের": 5825,
      "মৌসুম": 5826,
      "অমু": 5827,
      "অস্থ": 5828,
      "ইচ্ছে": 5829,
      "ইডার": 5830,
      "ইমর": 5831,
      "উকিল": 5832,
      "কেরা": 5833,
      "কপাল": 5834,
      "তও": 5835,
      "তরার": 5836,
      "তকন": 5837,
      "দলিল": 5838,
      "নব্বই": 5839,
      "পেরে": 5840,
      "যানি": 5841,
      "শরি": 5842,
      "হতি": 5843,
      "##ত্যা": 5844,
      "##ল্যে": 5845,
      "##ীজ": 5846,
      "##মেরা": 5847,
      "##দক": 5848,
      "##কুর": 5849,
      "##আমার": 5850,
      "##ভর": 5851,
      "##চল": 5852,
      "##চিন": 5853,
      "নাটক": 5854,
      "আমগোর": 5855,
      "কিয়া": 5856,
      "##ন্সে": 5857,
      "দেহার": 5858,
      "##াকার": 5859,
      "করস": 5860,
      "বেদনা": 5861,
      "নিয়াই": 5862,
      "অইছিলো": 5863,
      "যাইবেন": 5864,
      "হাতের": 5865,
      "##জিয়া": 5866,
      "প্রো": 5867,
      "তুইলা": 5868,
      "তাপ": 5869,
      "ভাইব": 5870,
      "টেহার": 5871,
      "##জেন্ট": 5872,
      "মুবাই": 5873,
      "এরপরে": 5874,
      "মিটিং": 5875,
      "তোরার": 5876,
      "গরাই": 5877,
      "তেজ": 5878,
      "ফালায়া": 5879,
      "##ন্ধা": 5880,
      "দিনখাল": 5881,
      "পরো": 5882,
      "বুঝায়": 5883,
      "চিটাই": 5884,
      "কোটা": 5885,
      "থাহ": 5886,
      "গুপ্ত": 5887,
      "ভিটা": 5888,
      "বাংলাদেশো": 5889,
      "আগর": 5890,
      "##ওয়াল": 5891,
      "টিফ": 5892,
      "রাখছি": 5893,
      "সাইজ": 5894,
      "হাইস": 5895,
      "শুনছি": 5896,
      "গ্যাঞ্জাম": 5897,
      "উইদ্দো": 5898,
      "লিখে": 5899,
      "বিষয়ডা": 5900,
      "পইড়া": 5901,
      "সারাজীবন": 5902,
      "বরং": 5903,
      "অহং": 5904,
      "মূলত": 5905,
      "প্রেমিক": 5906,
      "অধিকার": 5907,
      "মুক্তিযু": 5908,
      "ফেরত": 5909,
      "হৈলদি": 5910,
      "ওমরা": 5911,
      "কথাই": 5912,
      "থানার": 5913,
      "সুদানির": 5914,
      "মঙ্গলবার": 5915,
      "কার্যকর": 5916,
      "বান্ধবী": 5917,
      "রাত্তিরি": 5918,
      "মাহমুদ": 5919,
      "চাটগাঁইয়া": 5920,
      "বুচ্ছিস": 5921,
      "গার্লফ্রেন্ড": 5922,
      "বিএনপি": 5923,
      "দুনিয়ার": 5924,
      "##শাল্লাহ": 5925,
      "অক্": 5926,
      "অন্ত": 5927,
      "অবুক": 5928,
      "আবি": 5929,
      "আন্তা": 5930,
      "ইখটা": 5931,
      "উত্ত": 5932,
      "এপ": 5933,
      "কানে": 5934,
      "কপি": 5935,
      "চান্স": 5936,
      "থ্যা": 5937,
      "নানির": 5938,
      "পর্": 5939,
      "মনি": 5940,
      "মহান": 5941,
      "রানা": 5942,
      "লাম": 5943,
      "##টটি": 5944,
      "##টানি": 5945,
      "##ণ্টা": 5946,
      "##হানি": 5947,
      "##দারি": 5948,
      "##ফের": 5949,
      "##ঙা": 5950,
      "##ৈর": 5951,
      "##ঘাত": 5952,
      "কিইন্না": 5953,
      "##ন্সের": 5954,
      "##টাকে": 5955,
      "বিটি": 5956,
      "করচে": 5957,
      "##বাদে": 5958,
      "নিল": 5959,
      "কইতো": 5960,
      "কইছিলাম": 5961,
      "##চ্ছো": 5962,
      "আছেই": 5963,
      "লাগাইয়া": 5964,
      "যাইলে": 5965,
      "সাবর": 5966,
      "হাজির": 5967,
      "হইয়্যে": 5968,
      "দেখবে": 5969,
      "বুজে": 5970,
      "বুজা": 5971,
      "খইবু": 5972,
      "হেড": 5973,
      "খাসি": 5974,
      "বাইয়ের": 5975,
      "খাইয়েনে": 5976,
      "মেশ": 5977,
      "##জাত": 5978,
      "##টেল": 5979,
      "করিয়ে": 5980,
      "ফুত": 5981,
      "চাস": 5982,
      "##মিটার": 5983,
      "##মেন": 5984,
      "##মেদ": 5985,
      "পর্য": 5986,
      "নেন": 5987,
      "কার্যাল": 5988,
      "বালাও": 5989,
      "দেইক্ক": 5990,
      "করতেছে": 5991,
      "ছিলেন": 5992,
      "ফারছি": 5993,
      "ডিজ": 5994,
      "চেনে": 5995,
      "সরখারি": 5996,
      "কালহা": 5997,
      "রোজ": 5998,
      "তাইনের": 5999,
      "গেছিলো": 6000,
      "উইযে": 6001,
      "দিছিলো": 6002,
      "খালুর": 6003,
      "চুখ": 6004,
      "খেলাধু": 6005,
      "ভাবছি": 6006,
      "বাজারত": 6007,
      "ভুট্টা": 6008,
      "আলম": 6009,
      "ছয়ডা": 6010,
      "জানোস": 6011,
      "দাঁড়িয়ে": 6012,
      "বেইচ্চ": 6013,
      "পোলাপান": 6014,
      "খিলাই": 6015,
      "ভাগ্য": 6016,
      "আহত": 6017,
      "মরছে": 6018,
      "কয়েকদিন": 6019,
      "রঙের": 6020,
      "ফয়সা": 6021,
      "নিয়মিত": 6022,
      "ওষুদ": 6023,
      "মুগ্ধর": 6024,
      "ঠাণ্ডা": 6025,
      "ফেসবুকে": 6026,
      "আগামীকাল": 6027,
      "থেইক্কা": 6028,
      "বিনিয়োগ": 6029,
      "##ক্রান্ত": 6030,
      "ব্যবসায়ী": 6031,
      "ভূমিকা": 6032,
      "সমর্থন": 6033,
      "হাইবিড": 6034,
      "অডে": 6035,
      "অদ্দে": 6036,
      "আবো": 6037,
      "আদেশ": 6038,
      "এফ": 6039,
      "এফি": 6040,
      "এয়্যার": 6041,
      "ওবা": 6042,
      "কব": 6043,
      "কনে": 6044,
      "কবু": 6045,
      "খস": 6046,
      "গয়": 6047,
      "ঘন্টার": 6048,
      "ছাইয়া": 6049,
      "জার": 6050,
      "ধীরে": 6051,
      "পুই": 6052,
      "ভরে": 6053,
      "মরার": 6054,
      "মশা": 6055,
      "মধু": 6056,
      "রবী": 6057,
      "লবণ": 6058,
      "শত": 6059,
      "শতক": 6060,
      "সান": 6061,
      "স্যান্": 6062,
      "সফল": 6063,
      "হুক": 6064,
      "##কানি": 6065,
      "##সেই": 6066,
      "##ভু": 6067,
      "##খলা": 6068,
      "##চের": 6069,
      "##ষ্টা": 6070,
      "আমাগো": 6071,
      "##রাও": 6072,
      "বাউ": 6073,
      "বাঘ": 6074,
      "বাফর": 6075,
      "দিনা": 6076,
      "দিসি": 6077,
      "দিতার": 6078,
      "দেউ": 6079,
      "দেবেন": 6080,
      "একগু": 6081,
      "একসময়": 6082,
      "##ায়ার": 6083,
      "##ামীর": 6084,
      "##ুনির": 6085,
      "ওইব": 6086,
      "কইবো": 6087,
      "কইরো": 6088,
      "গেম": 6089,
      "##ত্বে": 6090,
      "হাউ": 6091,
      "ভাডি": 6092,
      "##ন্দরে": 6093,
      "রাতের": 6094,
      "##ঙ্কা": 6095,
      "মেহে": 6096,
      "টেঁয়ার": 6097,
      "##জনক": 6098,
      "যায়গুই": 6099,
      "কিন্তুক": 6100,
      "নামি": 6101,
      "মানুষোর": 6102,
      "বইছি": 6103,
      "##মিং": 6104,
      "দাবি": 6105,
      "ছেড়ি": 6106,
      "লেছু": 6107,
      "তিনবার": 6108,
      "গেইচে": 6109,
      "বোকা": 6110,
      "ফারমু": 6111,
      "রাইন্দা": 6112,
      "ডিজি": 6113,
      "ধরতে": 6114,
      "শাদি": 6115,
      "আইসো": 6116,
      "রিস": 6117,
      "এমপি": 6118,
      "সম্পূর্ণ": 6119,
      "আয়ি": 6120,
      "ছবির": 6121,
      "রান্দি": 6122,
      "প্রেশার": 6123,
      "##ফাতা": 6124,
      "থুইছে": 6125,
      "জ্বলে": 6126,
      "##শুড়ি": 6127,
      "উন্নতি": 6128,
      "গতকাল": 6129,
      "##ট্টল": 6130,
      "বেইন্না": 6131,
      "অফিসে": 6132,
      "অভিজ্ঞতা": 6133,
      "ঘোড়া": 6134,
      "সালের": 6135,
      "ভার্সিটির": 6136,
      "শহী": 6137,
      "দিইয়্যি": 6138,
      "ফনরো": 6139,
      "ব্লক": 6140,
      "বাস্তব": 6141,
      "টিউশনি": 6142,
      "টপিক": 6143,
      "কর্মকর্তা": 6144,
      "অদ্ভুত": 6145,
      "বিবিন্ন": 6146,
      "শাকিল": 6147,
      "চশমা": 6148,
      "অং": 6149,
      "অগো": 6150,
      "অগ্র": 6151,
      "আলাম": 6152,
      "গড়ি": 6153,
      "ঘাম": 6154,
      "চরি": 6155,
      "চাক": 6156,
      "ছাম": 6157,
      "দায়": 6158,
      "ফর্": 6159,
      "যথ": 6160,
      "রশিদ": 6161,
      "সরাস": 6162,
      "সাকিব": 6163,
      "হক্ক": 6164,
      "##লচে": 6165,
      "##বাল": 6166,
      "##যাই": 6167,
      "##পক": 6168,
      "##পানি": 6169,
      "##জল": 6170,
      "##খায়": 6171,
      "##এর": 6172,
      "##ধর": 6173,
      "##ঁচা": 6174,
      "##ৃঙ্": 6175,
      "##য়ুন": 6176,
      "নাশতা": 6177,
      "##য়াছি": 6178,
      "##য়ালি": 6179,
      "বাটা": 6180,
      "দেতো": 6181,
      "##য়েত": 6182,
      "একজনের": 6183,
      "এইদিন": 6184,
      "যেঁ": 6185,
      "আইচ্ছে": 6186,
      "আইছোইন": 6187,
      "##্রো": 6188,
      "##স্তো": 6189,
      "বেচি": 6190,
      "কইছো": 6191,
      "##টিভ": 6192,
      "মানব": 6193,
      "গেলেই": 6194,
      "কাডা": 6195,
      "কাচ্চি": 6196,
      "দেখছো": 6197,
      "ভালাই": 6198,
      "সেডা": 6199,
      "খাইবার": 6200,
      "লাইনে": 6201,
      "স্কা": 6202,
      "মানুষটা": 6203,
      "আসলো": 6204,
      "মোট": 6205,
      "বড়লোক": 6206,
      "গেছেন": 6207,
      "আরেখটা": 6208,
      "পররাষ্ট্র": 6209,
      "দুপুরে": 6210,
      "নেয়া": 6211,
      "ফরো": 6212,
      "দিয়েনে": 6213,
      "থাহা": 6214,
      "ছেন": 6215,
      "ফারবে": 6216,
      "এলাখার": 6217,
      "সেইম": 6218,
      "লাগিবু": 6219,
      "##খেন": 6220,
      "পড়লে": 6221,
      "আম্মায়": 6222,
      "##চ্ছিল": 6223,
      "শুনলাম": 6224,
      "অন্যের": 6225,
      "ভাবলাম": 6226,
      "কলেজে": 6227,
      "সহজে": 6228,
      "নোহায়": 6229,
      "##ফাত": 6230,
      "আফনারার": 6231,
      "এনতে": 6232,
      "বিশ্বকাপ": 6233,
      "ফালার": 6234,
      "ওহনি": 6235,
      "জ্বা": 6236,
      "সম্ভবত": 6237,
      "পুরুষ": 6238,
      "ইন্ডিয়ার": 6239,
      "ফুনারো": 6240,
      "রাজনৈতিক": 6241,
      "প্যাকেট": 6242,
      "আবেদন": 6243,
      "উৎসব": 6244,
      "অবাখ": 6245,
      "মুহূর্": 6246,
      "ওয়ালটন": 6247,
      "ট্যুর": 6248,
      "##বার্তা": 6249,
      "কিলোমিটার": 6250,
      "ষোলো": 6251,
      "অ্যাইয়ে": 6252,
      "পাকিস্ত": 6253,
      "রাতিয়ে": 6254,
      "সরাসরি": 6255,
      "অফে": 6256,
      "আতি": 6257,
      "ইও": 6258,
      "উবাই": 6259,
      "এগু": 6260,
      "এড়ে": 6261,
      "এত্ত": 6262,
      "ওত": 6263,
      "ওজন": 6264,
      "খয়ে": 6265,
      "ঘটে": 6266,
      "চৈ": 6267,
      "জুনি": 6268,
      "জটিল": 6269,
      "টের": 6270,
      "ডাল": 6271,
      "থ্রি": 6272,
      "দরে": 6273,
      "নব": 6274,
      "পাকা": 6275,
      "পির": 6276,
      "পসন্দ": 6277,
      "ফতি": 6278,
      "ফতম": 6279,
      "বক্ত": 6280,
      "লঞ্চ": 6281,
      "সকল": 6282,
      "হকল": 6283,
      "##লই": 6284,
      "##বেরে": 6285,
      "##বতী": 6286,
      "##রু": 6287,
      "##যার": 6288,
      "##দৌ": 6289,
      "##দর্শ": 6290,
      "##শী": 6291,
      "##শায়": 6292,
      "##শেষ": 6293,
      "##শনার": 6294,
      "##আপ": 6295,
      "##পাই": 6296,
      "##পরি": 6297,
      "##জাগা": 6298,
      "##খ্য": 6299,
      "##ষার": 6300,
      "##াইত": 6301,
      "##ানরে": 6302,
      "##লাগি": 6303,
      "বাসে": 6304,
      "দিকি": 6305,
      "একটাই": 6306,
      "এইখানে": 6307,
      "এইজন্য": 6308,
      "যেডে": 6309,
      "যেখানে": 6310,
      "আইনে": 6311,
      "আইয়ো": 6312,
      "মালা": 6313,
      "বেড": 6314,
      "নিচু": 6315,
      "ওইছি": 6316,
      "গেলেন": 6317,
      "##নাশ": 6318,
      "হাতি": 6319,
      "যাবা": 6320,
      "খইরাম": 6321,
      "##ান্তে": 6322,
      "##ডিল": 6323,
      "গাস": 6324,
      "হেতা": 6325,
      "সেট": 6326,
      "সেবা": 6327,
      "সেটি": 6328,
      "ভাইগ": 6329,
      "হয়নি": 6330,
      "সুখে": 6331,
      "স্ক": 6332,
      "সিআর": 6333,
      "আসলি": 6334,
      "মুক্ত": 6335,
      "এরফর": 6336,
      "মিলাই": 6337,
      "##ক্ষুক": 6338,
      "মাইয়ারে": 6339,
      "##টেয়": 6340,
      "করিছি": 6341,
      "ফুলাফ": 6342,
      "ফাডাই": 6343,
      "ব্যাট": 6344,
      "দুয়ার": 6345,
      "##খালে": 6346,
      "পারবা": 6347,
      "নেওয়ার": 6348,
      "গুসসা": 6349,
      "ভিক্ষুক": 6350,
      "গিফট": 6351,
      "##তুরে": 6352,
      "##য়াইজ": 6353,
      "কতদিন": 6354,
      "গানডা": 6355,
      "স্বামীর": 6356,
      "##বাসী": 6357,
      "হুট": 6358,
      "আছলো": 6359,
      "হরছে": 6360,
      "আব্দুল": 6361,
      "কাইজ্জা": 6362,
      "খেলবো": 6363,
      "##মার্ট": 6364,
      "##ন্দিত": 6365,
      "ফড়ার": 6366,
      "##ড্ডি": 6367,
      "প্রেসিডেন্ট": 6368,
      "অউত্তো": 6369,
      "ছয়টা": 6370,
      "নোট": 6371,
      "নানান": 6372,
      "শরম": 6373,
      "যাইবোগা": 6374,
      "আফনেরে": 6375,
      "##হিনীর": 6376,
      "বোঝো": 6377,
      "চিনতে": 6378,
      "খুলনায়": 6379,
      "আন্তরিক": 6380,
      "অবস্থান": 6381,
      "হগলডি": 6382,
      "বেবাক": 6383,
      "অথবা": 6384,
      "এহেনি": 6385,
      "ব্যাংকে": 6386,
      "পাগলা": 6387,
      "সভাপতি": 6388,
      "নাইগবে": 6389,
      "ব্রেক": 6390,
      "সেমিস্টার": 6391,
      "ভ্রমণ": 6392,
      "গ্লাস": 6393,
      "সাক্ষা": 6394,
      "ডিপার্টমেন্ট": 6395,
      "যথেষ্ট": 6396,
      "ইরা": 6397,
      "ওখ": 6398,
      "কয়ে": 6399,
      "গৈ": 6400,
      "গাম": 6401,
      "তাগে": 6402,
      "দলে": 6403,
      "দখল": 6404,
      "ধুরু": 6405,
      "পক্ষ": 6406,
      "পূর্": 6407,
      "পশ্চি": 6408,
      "ফলা": 6409,
      "ভঙ্গি": 6410,
      "মিন": 6411,
      "যেরা": 6412,
      "রাগে": 6413,
      "রয়েছে": 6414,
      "লর": 6415,
      "শূন্য": 6416,
      "হউর": 6417,
      "##ব্যু": 6418,
      "##ন্যা": 6419,
      "##হারি": 6420,
      "##হানের": 6421,
      "##দন্ত": 6422,
      "##কশন": 6423,
      "##আনি": 6424,
      "##পথ": 6425,
      "##পনা": 6426,
      "##ছনে": 6427,
      "##জ্যা": 6428,
      "##চল্লিশ": 6429,
      "##ঁড়া": 6430,
      "##ানব্বই": 6431,
      "##্যানা": 6432,
      "##রেই": 6433,
      "##লেন্স": 6434,
      "বাঙ্গ": 6435,
      "বালু": 6436,
      "দিছোইন": 6437,
      "বিতর": 6438,
      "মাচ": 6439,
      "মাতার": 6440,
      "##স্টা": 6441,
      "নিলে": 6442,
      "নিলাম": 6443,
      "অইবার": 6444,
      "ওইডাই": 6445,
      "গেস": 6446,
      "##ল্টি": 6447,
      "##ানিক": 6448,
      "##ানিং": 6449,
      "যাউক": 6450,
      "##শিয়ার": 6451,
      "পাচ্ছি": 6452,
      "থাকব": 6453,
      "থাকতাম": 6454,
      "তাফরে": 6455,
      "তাছাড়া": 6456,
      "হেতি": 6457,
      "খাবাই": 6458,
      "##ঙ্গু": 6459,
      "খাইছো": 6460,
      "গরিবের": 6461,
      "সুস্": 6462,
      "লাইট": 6463,
      "নামের": 6464,
      "##মুখ": 6465,
      "সিল": 6466,
      "আছিস": 6467,
      "আসতি": 6468,
      "মুছ": 6469,
      "মিশি": 6470,
      "মাইফোয়া": 6471,
      "ফরেও": 6472,
      "সময়ের": 6473,
      "##লাইছি": 6474,
      "ফাটাই": 6475,
      "##মির": 6476,
      "আপাতত": 6477,
      "ইয়ায়": 6478,
      "বুঝির": 6479,
      "দাড়ি": 6480,
      "তুউই": 6481,
      "ফাইল": 6482,
      "ছেল": 6483,
      "পাইবে": 6484,
      "আগস্ট": 6485,
      "কাজটা": 6486,
      "গোপাল": 6487,
      "পিঠ": 6488,
      "থেকেই": 6489,
      "সংস্ক": 6490,
      "জাহা": 6491,
      "শাহা": 6492,
      "শাস্তি": 6493,
      "এক্কেরে": 6494,
      "দশটার": 6495,
      "স্বফ": 6496,
      "রিস্ক": 6497,
      "##াক্কু": 6498,
      "সিলেটো": 6499,
      "আব্বায়": 6500,
      "অহনো": 6501,
      "লিটন": 6502,
      "হোউ": 6503,
      "যুক্তি": 6504,
      "সাবান": 6505,
      "জামাইরে": 6506,
      "ইনশাআ": 6507,
      "সোমায়": 6508,
      "বাদশা": 6509,
      "এহানে": 6510,
      "ধইর": 6511,
      "বারোডা": 6512,
      "ফালন": 6513,
      "হার্ট": 6514,
      "বিরানি": 6515,
      "ভেজাল": 6516,
      "আফনেরা": 6517,
      "আহমেদ": 6518,
      "ভর্তা": 6519,
      "অলরে": 6520,
      "স্বাস্থ্য": 6521,
      "পাঠায়": 6522,
      "মার্কে": 6523,
      "ঘুইর": 6524,
      "হাজতে": 6525,
      "পেয়েছে": 6526,
      "হারিয়ে": 6527,
      "ভইরা": 6528,
      "ফেসবুক": 6529,
      "যেরকম": 6530,
      "আঙ্গোর": 6531,
      "উদ্দেশ্য": 6532,
      "বোতল": 6533,
      "সংসদ": 6534,
      "ইলেকশন": 6535,
      "আশেপাশে": 6536,
      "ঠাকুর": 6537,
      "সিঙ্গাপুর": 6538,
      "মুসলিম": 6539,
      "সোহাগ": 6540,
      "ইজ": 6541,
      "ইচ্ছ": 6542,
      "ইগুর": 6543,
      "উয়্যার": 6544,
      "ওয়ার": 6545,
      "গার": 6546,
      "গুরো": 6547,
      "চ্যানে": 6548,
      "ঝাল": 6549,
      "ঝোল": 6550,
      "টার": 6551,
      "ধা": 6552,
      "নূর": 6553,
      "নুস": 6554,
      "পনেরো": 6555,
      "বক": 6556,
      "লক": 6557,
      "ষোল": 6558,
      "স্যু": 6559,
      "সফট": 6560,
      "হবি": 6561,
      "৩০": 6562,
      "##হুই": 6563,
      "##দূর": 6564,
      "##কানা": 6565,
      "##শল": 6566,
      "##পুরা": 6567,
      "##সায়": 6568,
      "##খালি": 6569,
      "##ফারি": 6570,
      "##অত্তে": 6571,
      "##য়ম": 6572,
      "##য়ায়": 6573,
      "##তাসি": 6574,
      "##রায়া": 6575,
      "এইট": 6576,
      "এইটুক": 6577,
      "এইরম": 6578,
      "বিজনে": 6579,
      "করুক": 6580,
      "করতাছি": 6581,
      "আইবে": 6582,
      "আইবার": 6583,
      "আইনা": 6584,
      "##ডাত": 6585,
      "##স্পতি": 6586,
      "বেস্ট": 6587,
      "বেডার": 6588,
      "বেঞ্চ": 6589,
      "নিরি": 6590,
      "নিষে": 6591,
      "হাসে": 6592,
      "এখশো": 6593,
      "দেখবা": 6594,
      "বুদ্দি": 6595,
      "##জিবুর": 6596,
      "খইলো": 6597,
      "##ড়ালে": 6598,
      "##ান্না": 6599,
      "পাড়": 6600,
      "পাঠা": 6601,
      "গাছো": 6602,
      "হেঁটে": 6603,
      "ভালোভাবে": 6604,
      "খাইত": 6605,
      "খাইবেন": 6606,
      "সুবি": 6607,
      "মেসি": 6608,
      "মেধা": 6609,
      "লাইব্র": 6610,
      "নামটা": 6611,
      "বেশিদিন": 6612,
      "চাবি": 6613,
      "তাইলি": 6614,
      "অয়ো": 6615,
      "ব্যাখ্যা": 6616,
      "বলেছে": 6617,
      "বলেছি": 6618,
      "তুরা": 6619,
      "চিল": 6620,
      "পারলে": 6621,
      "নেবে": 6622,
      "পরিক্ষা": 6623,
      "কোনে": 6624,
      "ফাইবে": 6625,
      "কামাল": 6626,
      "গিছি": 6627,
      "তিনডে": 6628,
      "কুট": 6629,
      "গোলাপ": 6630,
      "##য়ানো": 6631,
      "সাইট": 6632,
      "নিজোর": 6633,
      "ডিরেক্ট": 6634,
      "##শনাল": 6635,
      "##স্থান": 6636,
      "আইসতু": 6637,
      "দশমিক": 6638,
      "থাকিবু": 6639,
      "কালকা": 6640,
      "উঠছে": 6641,
      "ক্ষমা": 6642,
      "হুদাই": 6643,
      "প্রতিমন্ত্রী": 6644,
      "থাইক্ক": 6645,
      "হামাক": 6646,
      "হুনিয়া": 6647,
      "চুক্তি": 6648,
      "##ঁয়াজ": 6649,
      "মুখের": 6650,
      "ফড়ছি": 6651,
      "ওয়াজ": 6652,
      "##ক্টর": 6653,
      "ফুটব": 6654,
      "পইরা": 6655,
      "কিরখম": 6656,
      "কাঁদ": 6657,
      "অনুভব": 6658,
      "পার্সেন্ট": 6659,
      "আফনেরার": 6660,
      "##ঁইলে": 6661,
      "বৈশা": 6662,
      "বেইচ্চা": 6663,
      "বলিস": 6664,
      "ভদ্রলো": 6665,
      "খুইল্লা": 6666,
      "যুদিল": 6667,
      "ভারতের": 6668,
      "খতক্ষণ": 6669,
      "সন্ধ্যার": 6670,
      "মইদ্দ্যে": 6671,
      "ঝাড়": 6672,
      "দারুণ": 6673,
      "রংপুরের": 6674,
      "জ্যাঠা": 6675,
      "শক্তিশালী": 6676,
      "ছাওয়াল": 6677,
      "এতাল্লাই": 6678,
      "মন্ত্রণালয়": 6679,
      "পাঞ্জাবী": 6680,
      "##লাগালি": 6681,
      "সড়ক": 6682,
      "সোমবার": 6683,
      "ব্যায়াপার": 6684,
      "সৌন্দর্য": 6685,
      "অস্থির": 6686,
      "অপর": 6687,
      "আদি": 6688,
      "আল্লেহ": 6689,
      "এছাড়া": 6690,
      "ওজ্ঞা": 6691,
      "কারা": 6692,
      "খান্দা": 6693,
      "চান্": 6694,
      "চন্দন": 6695,
      "ছাগ": 6696,
      "ডাকে": 6697,
      "তঁইলে": 6698,
      "থায়": 6699,
      "পেইজ": 6700,
      "ফট": 6701,
      "ফঞ্চাইশ": 6702,
      "বদ্দ": 6703,
      "লগেই": 6704,
      "শোক": 6705,
      "সফ": 6706,
      "সায়": 6707,
      "সত্তর": 6708,
      "হস": 6709,
      "হলেও": 6710,
      "হউক": 6711,
      "##বাগ": 6712,
      "##ববার": 6713,
      "##বদ্ধ": 6714,
      "##ট্রি": 6715,
      "##েল": 6716,
      "##ক্যাল": 6717,
      "##ওয়্যার": 6718,
      "##সম্প": 6719,
      "##থাও": 6720,
      "##য়ুস": 6721,
      "##াইলাম": 6722,
      "##ানর": 6723,
      "বাফরে": 6724,
      "বাধা": 6725,
      "যেয়ে": 6726,
      "##বেল": 6727,
      "করলেই": 6728,
      "আইতাছে": 6729,
      "আইন্নে": 6730,
      "##ুনিক": 6731,
      "আমারতে": 6732,
      "কইত": 6733,
      "##লিত": 6734,
      "মানিক": 6735,
      "##র্ষ": 6736,
      "হইর": 6737,
      "ভাজ": 6738,
      "ভাং": 6739,
      "যাতাম": 6740,
      "##কিত": 6741,
      "খইতা": 6742,
      "খইছোইন": 6743,
      "খইয়্যুম": 6744,
      "##হাট": 6745,
      "খরলো": 6746,
      "##ুলার": 6747,
      "পাং": 6748,
      "পাড়া": 6749,
      "##ডিট": 6750,
      "গালাগালি": 6751,
      "হেলে": 6752,
      "খালে": 6753,
      "খাড়া": 6754,
      "খেলো": 6755,
      "খেলায়": 6756,
      "সিন্দ": 6757,
      "চাইলাম": 6758,
      "ফাস্ট": 6759,
      "ফাশে": 6760,
      "অনেকগুলা": 6761,
      "চাং": 6762,
      "ইয়াত": 6763,
      "বুঝছি": 6764,
      "জানায়": 6765,
      "##ঞ্জন": 6766,
      "পারতে": 6767,
      "কোহ": 6768,
      "##ীরার": 6769,
      "তিনদিন": 6770,
      "এইডাও": 6771,
      "##ত্তারি": 6772,
      "##পাতি": 6773,
      "ফারোইন": 6774,
      "রাখবো": 6775,
      "##মানুষ": 6776,
      "তরমু": 6777,
      "আজকা": 6778,
      "শুয়ে": 6779,
      "ছুট": 6780,
      "উঠতে": 6781,
      "আইজু": 6782,
      "আইছেলো": 6783,
      "আসলেও": 6784,
      "হামি": 6785,
      "হ্যাগো": 6786,
      "ভাষার": 6787,
      "চলতে": 6788,
      "খেলতো": 6789,
      "তারফরেও": 6790,
      "ফড়তাম": 6791,
      "জমির": 6792,
      "ক্লাসো": 6793,
      "ইউজ": 6794,
      "ফানিত": 6795,
      "বাড়তি": 6796,
      "এওন": 6797,
      "চাকরির": 6798,
      "কিরজি": 6799,
      "যাইয়াম": 6800,
      "যিবা": 6801,
      "স্কুলত": 6802,
      "##জ্জেন": 6803,
      "হাঁস": 6804,
      "ডরাই": 6805,
      "অপরাধ": 6806,
      "পুলিশের": 6807,
      "সার্ভি": 6808,
      "মধ্যেই": 6809,
      "কান্দা": 6810,
      "ব্যাপারটা": 6811,
      "বারিত": 6812,
      "এক্সট্রা": 6813,
      "বিশ্ববিদ্যালয়ে": 6814,
      "কমিটি": 6815,
      "দ্যাখতে": 6816,
      "উৎসা": 6817,
      "বার্তা": 6818,
      "বেআগগুন": 6819,
      "টুকরা": 6820,
      "কর্ণ": 6821,
      "মেয়েরা": 6822,
      "গেছলে": 6823,
      "প্রিন্সি": 6824,
      "নইলে": 6825,
      "চামড়া": 6826,
      "হালাইছে": 6827,
      "##ঘাট": 6828,
      "মশলা": 6829,
      "অঞ্চল": 6830,
      "ভুইল্লা": 6831,
      "কোম্পানি": 6832,
      "ভরসা": 6833,
      "চেংড়ি": 6834,
      "চমৎকার": 6835,
      "রাজধানী": 6836,
      "রাজধানীর": 6837,
      "আর্জেন্ট": 6838,
      "বানিয়ে": 6839,
      "বুড়িগ": 6840,
      "অন্ধকার": 6841,
      "গাঁজা": 6842,
      "আকাশে": 6843,
      "সহায়তা": 6844,
      "টিকিট": 6845,
      "ঠোঁ": 6846,
      "সম্প্রদায়": 6847,
      "কাঁঠাল": 6848,
      "আন্তাজি": 6849,
      "খেলাধুলা": 6850,
      "রবীন্দ্র": 6851,
      "আনো": 6852,
      "আচ্চা": 6853,
      "এদি": 6854,
      "কূ": 6855,
      "ঘোর": 6856,
      "ঘণ্টা": 6857,
      "চুই": 6858,
      "চারি": 6859,
      "জঙ্গ": 6860,
      "ধ্ব": 6861,
      "পছ": 6862,
      "পূরণ": 6863,
      "ফসন্দ": 6864,
      "বাইন": 6865,
      "বডি": 6866,
      "বসো": 6867,
      "মন্দ": 6868,
      "যেরে": 6869,
      "শপিং": 6870,
      "হলাম": 6871,
      "হবর": 6872,
      "হমানে": 6873,
      "##তল": 6874,
      "##্না": 6875,
      "##করি": 6876,
      "##পক্ষ": 6877,
      "##উনি": 6878,
      "##চাই": 6879,
      "##চাইন": 6880,
      "##ৈধ": 6881,
      "নাহি": 6882,
      "##য়াব": 6883,
      "আমিন": 6884,
      "বাম": 6885,
      "বাচি": 6886,
      "দিনো": 6887,
      "##রিম": 6888,
      "##ালী": 6889,
      "এইবা": 6890,
      "##ায়ক": 6891,
      "##বেদ": 6892,
      "বিরে": 6893,
      "বিজি": 6894,
      "মাতে": 6895,
      "বেঙ্গা": 6896,
      "##টিশ": 6897,
      "সাদিয়া": 6898,
      "##ন্তব্য": 6899,
      "ভাঙ্গা": 6900,
      "দেখলি": 6901,
      "যাস": 6902,
      "খরলা": 6903,
      "প্রকার": 6904,
      "প্র্যাক": 6905,
      "খাটা": 6906,
      "বাইরো": 6907,
      "খাইতু": 6908,
      "মেস": 6909,
      "##ম্ভ": 6910,
      "তাইকা": 6911,
      "##মিক্কে": 6912,
      "আরেক্কান": 6913,
      "##াকাছি": 6914,
      "অবৈধ": 6915,
      "জানার": 6916,
      "হেইনো": 6917,
      "ফাইবো": 6918,
      "বাংলাদেশি": 6919,
      "দিয়েছি": 6920,
      "গুড": 6921,
      "ভিত্তি": 6922,
      "ভিত্রে": 6923,
      "বালাউ": 6924,
      "সম্ভাবনা": 6925,
      "ফারছে": 6926,
      "আনন্দিত": 6927,
      "মইরে": 6928,
      "রাইখা": 6929,
      "বারবার": 6930,
      "সাইন্স": 6931,
      "হাইর": 6932,
      "হাইক": 6933,
      "ব্যবস্থ": 6934,
      "মারার": 6935,
      "ছুড": 6936,
      "ইয়্যুন": 6937,
      "বানানি": 6938,
      "রিসেন্ট": 6939,
      "##পেন": 6940,
      "পেটে": 6941,
      "পেয়ারা": 6942,
      "ঘুমের": 6943,
      "শুনো": 6944,
      "চাইরশো": 6945,
      "ছাইড়ে": 6946,
      "আরেকজন": 6947,
      "হোম": 6948,
      "জেগা": 6949,
      "মেয়েটি": 6950,
      "এসাইনমেন্ট": 6951,
      "মুখত": 6952,
      "##ওয়ার্": 6953,
      "চইল্লা": 6954,
      "বিষয়টা": 6955,
      "এওনে": 6956,
      "অনুস": 6957,
      "দৌড়াই": 6958,
      "যিমুন": 6959,
      "##পোরে": 6960,
      "ম্যাডামে": 6961,
      "ম্যাডামের": 6962,
      "ডাইরেক্ট": 6963,
      "ফুরাডা": 6964,
      "হোইবু": 6965,
      "কাছাকাছি": 6966,
      "বাঁচি": 6967,
      "চ্যাঁইতে": 6968,
      "ঠেলা": 6969,
      "আমনেরে": 6970,
      "ক্লাসের": 6971,
      "গার্মেন্ট": 6972,
      "##পারেশন": 6973,
      "লেখক": 6974,
      "কুইচ্চা": 6975,
      "ওয়ার্ড": 6976,
      "রোগী": 6977,
      "বাস্তবায়": 6978,
      "কোম্পানির": 6979,
      "দুলাভাই": 6980,
      "পদক্ষেপ": 6981,
      "ফ্রেম": 6982,
      "তবুও": 6983,
      "সর্বনাশ": 6984,
      "বুচ্ছস": 6985,
      "স্বাধীনতা": 6986,
      "পর্যায়ে": 6987,
      "আম্মুর": 6988,
      "প্রোগ্রাম": 6989,
      "বিজয়": 6990,
      "##গ্রহণ": 6991,
      "কুকুর": 6992,
      "দ্বী": 6993,
      "শুক্কুরবার": 6994,
      "পরিবহন": 6995,
      "জুনিয়র": 6996,
      "সাক্ষাৎ": 6997,
      "আলে": 6998,
      "আশ্": 6999,
      "ইক্কে": 7000,
      "এউ": 7001,
      "ওডি": 7002,
      "কদম": 7003,
      "গ্রে": 7004,
      "ঘই": 7005,
      "জম": 7006,
      "ড্র": 7007,
      "তউ": 7008,
      "তনে": 7009,
      "ধারা": 7010,
      "নিন": 7011,
      "নানে": 7012,
      "পুরিয়া": 7013,
      "ফ্রাই": 7014,
      "বত্ত": 7015,
      "মুরু": 7016,
      "যমুন": 7017,
      "রিয়া": 7018,
      "সোয়া": 7019,
      "সুনা": 7020,
      "হম": 7021,
      "১২": 7022,
      "##ল্যান্ড": 7023,
      "##মতে": 7024,
      "##ইয়ে": 7025,
      "##হুর": 7026,
      "##দাম": 7027,
      "##শব": 7028,
      "##ভী": 7029,
      "##জানি": 7030,
      "##খলে": 7031,
      "##য়নে": 7032,
      "##য়ানি": 7033,
      "##য়াত": 7034,
      "আমা": 7035,
      "দিছইন": 7036,
      "##্যাহত": 7037,
      "##ছিত": 7038,
      "##ছিলা": 7039,
      "একু": 7040,
      "একড্যা": 7041,
      "এইত": 7042,
      "এইগলা": 7043,
      "##ুইন্না": 7044,
      "বিসি": 7045,
      "বিরিয়": 7046,
      "বিত্রে": 7047,
      "আইও": 7048,
      "আইট্টা": 7049,
      "##তিতে": 7050,
      "##বাহিত": 7051,
      "কইবেন": 7052,
      "মানের": 7053,
      "##কেন": 7054,
      "আঁত": 7055,
      "সমায়": 7056,
      "##ন্তার": 7057,
      "তুমরার": 7058,
      "ভাজা": 7059,
      "দেখছিলাম": 7060,
      "ভালই": 7061,
      "বুচ্ছ": 7062,
      "সবায়": 7063,
      "##হাত": 7064,
      "##গাড়": 7065,
      "##ান্তর": 7066,
      "থাকপো": 7067,
      "গাব": 7068,
      "খাব": 7069,
      "খাইবা": 7070,
      "গরিলে": 7071,
      "লইলে": 7072,
      "লইগ্গা": 7073,
      "মেম্বার": 7074,
      "##জন্যি": 7075,
      "সিজন": 7076,
      "সিএস": 7077,
      "আসিন": 7078,
      "মুভি": 7079,
      "এরারে": 7080,
      "বইছে": 7081,
      "বইডা": 7082,
      "##ক্ষন": 7083,
      "মাইধ্য": 7084,
      "ফুতি": 7085,
      "তেও": 7086,
      "ফালা": 7087,
      "ফাখি": 7088,
      "ফাঞ্জা": 7089,
      "আঁরতে": 7090,
      "আরেহ": 7091,
      "বুঝিত": 7092,
      "লাঠি": 7093,
      "জানতো": 7094,
      "পারতাম": 7095,
      "নেট": 7096,
      "নেমে": 7097,
      "ফরছি": 7098,
      "কোহানে": 7099,
      "বউয়ে": 7100,
      "অনলাইন": 7101,
      "ফিচ": 7102,
      "গেইল": 7103,
      "বোন্দো": 7104,
      "##পাদন": 7105,
      "##কুলে": 7106,
      "##্বর": 7107,
      "##গ্গো": 7108,
      "ব্যবসার": 7109,
      "চেন": 7110,
      "শুভে": 7111,
      "সবাইর": 7112,
      "পোলায়": 7113,
      "গানটা": 7114,
      "ছোটবে": 7115,
      "উঠো": 7116,
      "দেহিস": 7117,
      "বয়স্ক": 7118,
      "থাকেন": 7119,
      "হুনা": 7120,
      "হুনতে": 7121,
      "আসেন": 7122,
      "কাইটা": 7123,
      "খেলাত": 7124,
      "মাসো": 7125,
      "আটকে": 7126,
      "আটটার": 7127,
      "ইতিরে": 7128,
      "##ড্ডে": 7129,
      "##ভেল": 7130,
      "ভাষাত": 7131,
      "##ফেজ": 7132,
      "কলকা": 7133,
      "ধানম": 7134,
      "##সোস": 7135,
      "নির্দেশ": 7136,
      "হারাই": 7137,
      "স্টার্ট": 7138,
      "উনিশ": 7139,
      "ভেবে": 7140,
      "জায়গাত": 7141,
      "বুঝিস": 7142,
      "হাসির": 7143,
      "রহস্য": 7144,
      "আহ্ব": 7145,
      "##যুগ": 7146,
      "খুঁজি": 7147,
      "পাশের": 7148,
      "অনুষ্ঠানে": 7149,
      "কুম্": 7150,
      "ক্লাসে": 7151,
      "বোনের": 7152,
      "ফাঁকে": 7153,
      "চৌদ্দ": 7154,
      "বিমানবন্দরে": 7155,
      "##ক্সিমাম": 7156,
      "ব্রাজিল": 7157,
      "##াগুলা": 7158,
      "ট্যুরিস্ট": 7159,
      "খউছান": 7160,
      "বিরিজ": 7161,
      "রিলেশন": 7162,
      "নিরাপত্তা": 7163,
      "আইয়্যের": 7164,
      "গুজব": 7165,
      "বিশ্বেস": 7166,
      "নিঃশ্বাস": 7167,
      "বৃহস্পতি": 7168,
      "এক্কেবারে": 7169,
      "ইঞ্জিনি": 7170,
      "অদ্দেক": 7171,
      "শুভেচ্ছা": 7172,
      "অগু": 7173,
      "অস্ত্র": 7174,
      "আতে": 7175,
      "আডা": 7176,
      "আত্তি": 7177,
      "ইপ": 7178,
      "ইজি": 7179,
      "ইসির": 7180,
      "উডা": 7181,
      "উদো": 7182,
      "এতি": 7183,
      "এদের": 7184,
      "এপ্লাই": 7185,
      "ওভারে": 7186,
      "কছে": 7187,
      "কত্ত": 7188,
      "কল্প": 7189,
      "গম্": 7190,
      "ছালাই": 7191,
      "জারি": 7192,
      "জ্যানু": 7193,
      "টমে": 7194,
      "ত্": 7195,
      "তানোর": 7196,
      "ধো": 7197,
      "ধন": 7198,
      "ধরিয়া": 7199,
      "নড়": 7200,
      "পীর": 7201,
      "বড্ডা": 7202,
      "বদন": 7203,
      "মদ": 7204,
      "লতা": 7205,
      "স্যাল": 7206,
      "সখালে": 7207,
      "হয": 7208,
      "হছন্দ": 7209,
      "২৫": 7210,
      "##টস": 7211,
      "##ইরা": 7212,
      "##দুই": 7213,
      "##কষ্ট": 7214,
      "##শেই": 7215,
      "##সী": 7216,
      "##সাও": 7217,
      "##ৃতির": 7218,
      "##ঢ়": 7219,
      "##াইবা": 7220,
      "##ছেগা": 7221,
      "আমগো": 7222,
      "##রেক": 7223,
      "##লেঞ্জ": 7224,
      "একটার": 7225,
      "বিবে": 7226,
      "বিকাশ": 7227,
      "নিম": 7228,
      "অইসে": 7229,
      "##টিফি": 7230,
      "তারাও": 7231,
      "##র্তি": 7232,
      "হইছি": 7233,
      "হইলি": 7234,
      "যায়ে": 7235,
      "##ারিত": 7236,
      "##হাসিক": 7237,
      "প্রস্তুত": 7238,
      "পাঁ": 7239,
      "পাখির": 7240,
      "একটাও": 7241,
      "হেতার": 7242,
      "##তামত": 7243,
      "দুইতিন": 7244,
      "##বুরা": 7245,
      "খুঁই": 7246,
      "গরিল": 7247,
      "লাইবো": 7248,
      "##জেন্সি": 7249,
      "নামায়": 7250,
      "নামডা": 7251,
      "মুশ": 7252,
      "বইটি": 7253,
      "মিটার": 7254,
      "মিছিল": 7255,
      "করিত": 7256,
      "ফালে": 7257,
      "আগেদি": 7258,
      "অব্যাহত": 7259,
      "দুবাই": 7260,
      "পার্ট": 7261,
      "মনর": 7262,
      "গুরি": 7263,
      "ভিসা": 7264,
      "##প্পা": 7265,
      "##য়াইয়া": 7266,
      "##য়াইবা": 7267,
      "লেডি": 7268,
      "বাংলাদেশী": 7269,
      "ফেলো": 7270,
      "##ক্কর": 7271,
      "তোঁর": 7272,
      "মারবো": 7273,
      "ডাং": 7274,
      "কিনন": 7275,
      "##যোগ্য": 7276,
      "ফোনটা": 7277,
      "হোসেন": 7278,
      "জেল": 7279,
      "সাবধানে": 7280,
      "আটক": 7281,
      "আটকা": 7282,
      "কইরাই": 7283,
      "জামাইয়ের": 7284,
      "খাওয়ায়": 7285,
      "করছিলো": 7286,
      "কষ্টের": 7287,
      "বুইজ্জ": 7288,
      "বুইজ্জো": 7289,
      "বাড়ায়": 7290,
      "ঘাটে": 7291,
      "বান্দু": 7292,
      "দাঁড়ায়": 7293,
      "রুটিন": 7294,
      "যতদিন": 7295,
      "ডাক্তর": 7296,
      "তারপরও": 7297,
      "ফড়াত": 7298,
      "ফরাশোনা": 7299,
      "ডাক্তারের": 7300,
      "আনিয়া": 7301,
      "লেখাপড়া": 7302,
      "দূষণ": 7303,
      "কারেন্টের": 7304,
      "পুরান": 7305,
      "ফ্রতি": 7306,
      "নোয়াখাল": 7307,
      "শিখতে": 7308,
      "গিয়্যেগই": 7309,
      "চ্যালেঞ্জ": 7310,
      "কাওয়াইছে": 7311,
      "ঝাঁ": 7312,
      "##ক্রিম": 7313,
      "টুকটাক": 7314,
      "টেনশনে": 7315,
      "সীমা": 7316,
      "ব্যাংকের": 7317,
      "পাবলিক": 7318,
      "শালার": 7319,
      "পঁচিশ": 7320,
      "পাহাড়": 7321,
      "থানাত": 7322,
      "ত্যাগ": 7323,
      "আযিয়া": 7324,
      "প্রশংসা": 7325,
      "পোইলা": 7326,
      "ঢাখাত": 7327,
      "এখেখ": 7328,
      "চিটাংঅর": 7329,
      "কিপটা": 7330,
      "ক্ষুধা": 7331,
      "সামাজিক": 7332,
      "মন্ত্রি": 7333,
      "টিফিন": 7334,
      "ডিজাইন": 7335,
      "স্যান্ডেল": 7336,
      "আহ্বান": 7337,
      "আগো": 7338,
      "ইসাব": 7339,
      "উত্তে": 7340,
      "ওভার": 7341,
      "কশ": 7342,
      "কোইন": 7343,
      "খারে": 7344,
      "গাইতে": 7345,
      "ঘড়ি": 7346,
      "চেই": 7347,
      "চিনা": 7348,
      "ছক্কা": 7349,
      "ছক্কু": 7350,
      "জুলাই": 7351,
      "টাম": 7352,
      "ড্রে": 7353,
      "থো": 7354,
      "পুত": 7355,
      "ভবন": 7356,
      "মরিয়": 7357,
      "মতামত": 7358,
      "রাগা": 7359,
      "শার": 7360,
      "শ্ম": 7361,
      "সঙ্গ": 7362,
      "##ীম": 7363,
      "##বই": 7364,
      "##বরা": 7365,
      "##্ণ": 7366,
      "##্নি": 7367,
      "##হোক": 7368,
      "##দর্শন": 7369,
      "##ুক্কা": 7370,
      "##গরি": 7371,
      "##পতির": 7372,
      "##ূপ": 7373,
      "##ভো": 7374,
      "##খবর": 7375,
      "##ফোর": 7376,
      "##ফোর্ট": 7377,
      "##চন": 7378,
      "##ষট্টি": 7379,
      "##ঙে": 7380,
      "##অনে": 7381,
      "##০০": 7382,
      "##্যারি": 7383,
      "##্যুত": 7384,
      "আমায়": 7385,
      "##ন্নো": 7386,
      "##ন্টিং": 7387,
      "বায়ো": 7388,
      "বালিশ": 7389,
      "দিছো": 7390,
      "দিয়্যেরে": 7391,
      "দেলে": 7392,
      "##নেট": 7393,
      "##নেস": 7394,
      "##য়েট": 7395,
      "এইলা": 7396,
      "এইটে": 7397,
      "এইরহম": 7398,
      "##াগার": 7399,
      "বিভ": 7400,
      "করলা": 7401,
      "মাতো": 7402,
      "মাজার": 7403,
      "##তোই": 7404,
      "বেঁচ": 7405,
      "বেসর": 7406,
      "ওইভাবে": 7407,
      "আছেনি": 7408,
      "মানষি": 7409,
      "##কাত": 7410,
      "আঁআ": 7411,
      "##য়ারের": 7412,
      "কাসে": 7413,
      "##বিলি": 7414,
      "##সিলাম": 7415,
      "ভাঙ্গ": 7416,
      "কেটে": 7417,
      "যাত্রা": 7418,
      "বুকে": 7419,
      "সবটি": 7420,
      "##জিং": 7421,
      "##গাঁ": 7422,
      "প্রভাব": 7423,
      "প্রজেক্ট": 7424,
      "তুইল": 7425,
      "তুইও": 7426,
      "হেও": 7427,
      "হেডে": 7428,
      "হেতির": 7429,
      "খাআ": 7430,
      "খাডি": 7431,
      "খাদ্য": 7432,
      "সেল": 7433,
      "সেন্ট": 7434,
      "খাইলি": 7435,
      "গরিবে": 7436,
      "গরিবা": 7437,
      "লইছে": 7438,
      "##জেক্": 7439,
      "মুশার": 7440,
      "আবারা": 7441,
      "তেন": 7442,
      "##লাইনে": 7443,
      "এহনও": 7444,
      "##ানাি": 7445,
      "চাপা": 7446,
      "##মেটিক": 7447,
      "বুঝতি": 7448,
      "পরিষ": 7449,
      "কোল": 7450,
      "কারখান": 7451,
      "কারখানা": 7452,
      "অন্যায়": 7453,
      "ফিউ": 7454,
      "গেইম": 7455,
      "ফেট": 7456,
      "ছিনে": 7457,
      "ছোউ": 7458,
      "শিম": 7459,
      "ফরিবেশ": 7460,
      "ফারলে": 7461,
      "ফারবা": 7462,
      "##ইন্যা": 7463,
      "রাইক্কা": 7464,
      "হাইন্": 7465,
      "ক্যাপ্টে": 7466,
      "ক্যামেরা": 7467,
      "ডিগ্রি": 7468,
      "##সুদ": 7469,
      "সংঘ": 7470,
      "যাওন": 7471,
      "কমলা": 7472,
      "ডাবল": 7473,
      "এমবি": 7474,
      "রোম": 7475,
      "ইবেত": 7476,
      "গইরতাম": 7477,
      "হাসিনার": 7478,
      "বয়লার": 7479,
      "গ্যাসের": 7480,
      "লোকের": 7481,
      "খয়দিন": 7482,
      "তইলি": 7483,
      "আরেকবার": 7484,
      "আরেকটু": 7485,
      "হুনলে": 7486,
      "আসিয়া": 7487,
      "সাবোর": 7488,
      "কষ্টে": 7489,
      "দিলেও": 7490,
      "রাজশা": 7491,
      "ওইলোগি": 7492,
      "নির্ভর": 7493,
      "পইজ্জি": 7494,
      "ভেঙ্গে": 7495,
      "সমাজের": 7496,
      "রুমো": 7497,
      "থাখতে": 7498,
      "পাশশো": 7499,
      "অভ্য": 7500,
      "নোয়াখাই": 7501,
      "তুলিয়া": 7502,
      "বদলে": 7503,
      "মসজিদো": 7504,
      "প্রশ্নের": 7505,
      "##য়ারিং": 7506,
      "পনোরো": 7507,
      "সিরিয়াল": 7508,
      "ধর্মীয়": 7509,
      "সংসারে": 7510,
      "আমেরিক": 7511,
      "তেইশ": 7512,
      "গিরস্তি": 7513,
      "ট্রাক": 7514,
      "##ভূতি": 7515,
      "ঐতিহাসিক": 7516,
      "গবেষণা": 7517,
      "একাউন্টিং": 7518,
      "পরীক্ষার": 7519,
      "সমেস্যা": 7520,
      "কমপ্লিট": 7521,
      "উদাহরণ": 7522,
      "টিকাছে": 7523,
      "গুপ্তধন": 7524,
      "অহংকার": 7525,
      "বেইচ্চাল": 7526,
      "ভাইগ্য": 7527,
      "বিজনেস": 7528,
      "মেধাবী": 7529,
      "বৈশাখ": 7530,
      "বিরিয়ানি": 7531,
      "গম্ভীর": 7532,
      "নোয়াখাইল্ল": 7533,
      "অলে": 7534,
      "অগ্": 7535,
      "অধ্য": 7536,
      "অধি": 7537,
      "ইরখম": 7538,
      "এলে": 7539,
      "এজন্য": 7540,
      "কৈ": 7541,
      "কাকি": 7542,
      "খোক": 7543,
      "খোয়া": 7544,
      "গৌ": 7545,
      "ছলা": 7546,
      "জনি": 7547,
      "দক্ষ": 7548,
      "দফা": 7549,
      "নগর": 7550,
      "পকেট": 7551,
      "ফুরু": 7552,
      "ফঞ্চাশ": 7553,
      "ভান": 7554,
      "মাকে": 7555,
      "হষ্ট": 7556,
      "হ্যারা": 7557,
      "##তরা": 7558,
      "##বয়": 7559,
      "##মবা": 7560,
      "##দত": 7561,
      "##দানি": 7562,
      "##ুদ": 7563,
      "##কৃতি": 7564,
      "##শুনা": 7565,
      "##ডাক": 7566,
      "##পড়": 7567,
      "##পায়": 7568,
      "##পাক": 7569,
      "##উরি": 7570,
      "##সস": 7571,
      "##ংরা": 7572,
      "##ফুরে": 7573,
      "##এক": 7574,
      "##ঁকি": 7575,
      "##ঠাক": 7576,
      "##তালা": 7577,
      "এইগ্লা": 7578,
      "যেমুন": 7579,
      "আরাই": 7580,
      "বিধ": 7581,
      "বিকেলে": 7582,
      "করবের": 7583,
      "করুণ": 7584,
      "##ক্সে": 7585,
      "মাটির": 7586,
      "##তোত": 7587,
      "বেল": 7588,
      "বেছে": 7589,
      "ওইল্লা": 7590,
      "কইতারি": 7591,
      "##টিয়ে": 7592,
      "সাপ": 7593,
      "সাং": 7594,
      "সাঁ": 7595,
      "##ন্তু": 7596,
      "হাটে": 7597,
      "হইর্রা": 7598,
      "রাতিয়া": 7599,
      "খইতো": 7600,
      "##ান্ধ": 7601,
      "খরজ": 7602,
      "পাছ": 7603,
      "##ুষ্ট": 7604,
      "বাইরি": 7605,
      "বাইগুন": 7606,
      "সেমিন": 7607,
      "সেভেন": 7608,
      "খুজি": 7609,
      "গরিয়েনে": 7610,
      "লইয়েনে": 7611,
      "লাইফে": 7612,
      "আসন": 7613,
      "মুজিবুর": 7614,
      "মোদি": 7615,
      "এরলাই": 7616,
      "মিলা": 7617,
      "##টেম": 7618,
      "বলতি": 7619,
      "বলুন": 7620,
      "ফুলি": 7621,
      "ছাব্বিশ": 7622,
      "##মিলির": 7623,
      "আফার": 7624,
      "##ছোত": 7625,
      "দাস": 7626,
      "দাড়া": 7627,
      "পারতো": 7628,
      "পরিবারে": 7629,
      "ফরলে": 7630,
      "বউয়ের": 7631,
      "গুলো": 7632,
      "গুডা": 7633,
      "দেইক্ষা": 7634,
      "করোস": 7635,
      "অনলাইনে": 7636,
      "##ত্তারে": 7637,
      "ফরিক্ষা": 7638,
      "ফরিচয়": 7639,
      "জিজ্ঞা": 7640,
      "জিন্দে": 7641,
      "হয়েছি": 7642,
      "হয়েছিল": 7643,
      "উপল": 7644,
      "##গ্লাস": 7645,
      "পিডা": 7646,
      "পড়ছি": 7647,
      "পড়লাম": 7648,
      "গাড়িতে": 7649,
      "মারবে": 7650,
      "পোকা": 7651,
      "##ঙ্গেল": 7652,
      "##াক্তার": 7653,
      "হুজুর": 7654,
      "আইজগা": 7655,
      "তাইনরে": 7656,
      "খাওনের": 7657,
      "চাইরজন": 7658,
      "আব্বারে": 7659,
      "দিছিল": 7660,
      "খালারে": 7661,
      "এতঅর": 7662,
      "##গুনা": 7663,
      "##পুরুষ": 7664,
      "মেয়েকে": 7665,
      "ছেলেটা": 7666,
      "ফড়ায়": 7667,
      "ডেড়": 7668,
      "ডেভেল": 7669,
      "নাগসে": 7670,
      "মিনিটের": 7671,
      "মিনিমাম": 7672,
      "বুইঝ": 7673,
      "বিশ্বের": 7674,
      "ক্যান্ট": 7675,
      "ফইরজে": 7676,
      "জোছনা": 7677,
      "জোগাড়": 7678,
      "পার্থ": 7679,
      "ইকানো": 7680,
      "স্কুলর": 7681,
      "এমনেই": 7682,
      "##টিক্যাল": 7683,
      "হইতেছে": 7684,
      "ঢুকছে": 7685,
      "খুইলা": 7686,
      "বদলি": 7687,
      "সার্টিফি": 7688,
      "##অলরে": 7689,
      "নিয়োগ": 7690,
      "এগারোটা": 7691,
      "উরফে": 7692,
      "চ্যাট": 7693,
      "যোগ্য": 7694,
      "বুজিস": 7695,
      "উৎপাদন": 7696,
      "পনরো": 7697,
      "ময়লা": 7698,
      "দুনিয়াত": 7699,
      "ফোয়ারিত": 7700,
      "নিউজ": 7701,
      "বাহিরে": 7702,
      "পৌঁছ": 7703,
      "রবিবার": 7704,
      "বোধহয়": 7705,
      "মানষির": 7706,
      "ক্যাম্পাস": 7707,
      "মেসেজ": 7708,
      "গৃহ": 7709,
      "সুস্বা": 7710,
      "চ্যানেল": 7711,
      "সফটওয়্যার": 7712,
      "বত্তমানে": 7713,
      "হযরত": 7714,
      "সার্টিফিকেট": 7715,
      "ইবায়": 7716,
      "উডাই": 7717,
      "এশিয়া": 7718,
      "ওগুলা": 7719,
      "কলার": 7720,
      "খানে": 7721,
      "খত্তে": 7722,
      "গল্": 7723,
      "গুষ্টি": 7724,
      "চাইন": 7725,
      "ছের": 7726,
      "জাক": 7727,
      "জাও": 7728,
      "জেরে": 7729,
      "জঙ্গি": 7730,
      "ডো": 7731,
      "তীর": 7732,
      "তর্ক": 7733,
      "তদন্ত": 7734,
      "ধর্": 7735,
      "ধুরো": 7736,
      "নল": 7737,
      "নী": 7738,
      "নীতি": 7739,
      "পঞ্চ": 7740,
      "পানের": 7741,
      "ফাক": 7742,
      "ফেরে": 7743,
      "মর্": 7744,
      "মন্দি": 7745,
      "মন্তব্য": 7746,
      "রপ্ত": 7747,
      "শোনা": 7748,
      "সও": 7749,
      "সপ্": 7750,
      "হারণ": 7751,
      "হোনো": 7752,
      "১৫": 7753,
      "##তুই": 7754,
      "##োদ": 7755,
      "##ম্যা": 7756,
      "##ণত": 7757,
      "##শক": 7758,
      "##শনো": 7759,
      "##ডুর": 7760,
      "##পটপ": 7761,
      "##সূ": 7762,
      "##সাম": 7763,
      "##ভায়": 7764,
      "##ফুরি": 7765,
      "##চুইন": 7766,
      "##চাইর": 7767,
      "##ঝো": 7768,
      "##য়ই": 7769,
      "##াইবো": 7770,
      "##লেখার": 7771,
      "বাত্তি": 7772,
      "বাছুর": 7773,
      "##াল্": 7774,
      "যেগুলা": 7775,
      "বিয়াই": 7776,
      "করুম": 7777,
      "করছুইন": 7778,
      "##লোনা": 7779,
      "মাষ্ট": 7780,
      "মাধব": 7781,
      "##বাবে": 7782,
      "বেন": 7783,
      "বেকে": 7784,
      "বেটির": 7785,
      "আমারও": 7786,
      "অইলেই": 7787,
      "অইছিন": 7788,
      "ওইরম": 7789,
      "কইছ": 7790,
      "লাগার": 7791,
      "গেঞ্জাম": 7792,
      "##কাজ": 7793,
      "কালাম": 7794,
      "কাটে": 7795,
      "সাদি": 7796,
      "নাইর": 7797,
      "হাবা": 7798,
      "হাডি": 7799,
      "হাফেজ": 7800,
      "দেখতো": 7801,
      "দেখবো": 7802,
      "দেখছস": 7803,
      "সবচ": 7804,
      "##শিক্ষিত": 7805,
      "পাবা": 7806,
      "থাকমু": 7807,
      "গাধা": 7808,
      "খাড়": 7809,
      "খাবা": 7810,
      "খাচ্ছে": 7811,
      "খাবেন": 7812,
      "খাট্টল": 7813,
      "সেন্টার": 7814,
      "খাইবো": 7815,
      "মেগ": 7816,
      "টেপ": 7817,
      "##ডেট": 7818,
      "স্পে": 7819,
      "##তারবো": 7820,
      "##িনির": 7821,
      "মোডা": 7822,
      "বইল্লা": 7823,
      "##টেড": 7824,
      "ফুঁ": 7825,
      "তেলের": 7826,
      "সময়মতো": 7827,
      "চাউল": 7828,
      "ছাড়ে": 7829,
      "অবদান": 7830,
      "ব্যাড": 7831,
      "পরবর্তী": 7832,
      "ক্রাস": 7833,
      "জানলে": 7834,
      "ফরার": 7835,
      "ফরতে": 7836,
      "##জ্ঞাই": 7837,
      "থাখা": 7838,
      "ঠিকঠাক": 7839,
      "গেইয়ে": 7840,
      "টিকে": 7841,
      "দরজার": 7842,
      "এটাই": 7843,
      "এট্ট": 7844,
      "##শালে": 7845,
      "##শাসন": 7846,
      "রাখো": 7847,
      "তরুণ": 7848,
      "ম্যাথ": 7849,
      "চেঞ্জ": 7850,
      "সংগ": 7851,
      "সরল": 7852,
      "সরকারে": 7853,
      "ডাউন": 7854,
      "যারগুই": 7855,
      "রোববার": 7856,
      "গইরতো": 7857,
      "হইছেলো": 7858,
      "অন্যতম": 7859,
      "উইকেট": 7860,
      "থাইতে": 7861,
      "মাইয়াডা": 7862,
      "##চ্চার": 7863,
      "হুনো": 7864,
      "কাইলে": 7865,
      "কাইছছ": 7866,
      "ভাবী": 7867,
      "কনু": 7868,
      "গেলেগা": 7869,
      "খেলছি": 7870,
      "অউক": 7871,
      "বিশ্রাম": 7872,
      "ধইন্যবাদ": 7873,
      "দেছেলো": 7874,
      "দেখেন": 7875,
      "##মোরি": 7876,
      "ঘটনার": 7877,
      "##চুড়ি": 7878,
      "এসেছেন": 7879,
      "যিয়্যিন": 7880,
      "কবির": 7881,
      "সংসারের": 7882,
      "ভোরে": 7883,
      "অলস": 7884,
      "ধরেন": 7885,
      "বেয়াকগুনের": 7886,
      "মার্চ": 7887,
      "বদল": 7888,
      "প্রত্যা": 7889,
      "ফাইরজুম": 7890,
      "ফছন্দের": 7891,
      "কুমার": 7892,
      "গেইয়্যিগই": 7893,
      "পুরোপুরি": 7894,
      "##পুত্র": 7895,
      "##সুমা": 7896,
      "সাগরত": 7897,
      "হোটেলে": 7898,
      "মেডিক্যাল": 7899,
      "দীপ": 7900,
      "কর্তৃ": 7901,
      "ফেইসবু": 7902,
      "শুক্রবারে": 7903,
      "এয়ারপোর্ট": 7904,
      "ভালোবাসো": 7905,
      "জ্ঞানী": 7906,
      "আরেখবার": 7907,
      "প্রবলেম": 7908,
      "প্রবৃদ্ধি": 7909,
      "তাঁকে": 7910,
      "শ্রেণি": 7911,
      "প্রত্যেক": 7912,
      "অশান্তি": 7913,
      "প্রোগ্রা": 7914,
      "সতর্ক": 7915,
      "##ধুরী": 7916,
      "অক্টো": 7917,
      "জ্বালায়": 7918,
      "স্যুট": 7919,
      "নিরিবিলি": 7920,
      "হামিদ": 7921,
      "কর্ণফুল": 7922,
      "বুচ্ছোনি": 7923,
      "বৃহস্পতিবার": 7924,
      "ত্তুন": 7925,
      "অতার": 7926,
      "আষ্ট": 7927,
      "উঢ": 7928,
      "উদ্য": 7929,
      "কবা": 7930,
      "কারি": 7931,
      "কপা": 7932,
      "ক্যারা": 7933,
      "খয়েক": 7934,
      "ছ্যা": 7935,
      "ছাকরি": 7936,
      "জনে": 7937,
      "ঢাই": 7938,
      "নক": 7939,
      "নরে": 7940,
      "নারি": 7941,
      "ফালি": 7942,
      "বন্দর": 7943,
      "বীর": 7944,
      "মনা": 7945,
      "যাম": 7946,
      "লাও": 7947,
      "লগের": 7948,
      "শিয়াল": 7949,
      "সিন": 7950,
      "সখাল": 7951,
      "##ীদের": 7952,
      "##নাম": 7953,
      "##ট্টু": 7954,
      "##দাও": 7955,
      "##কোনা": 7956,
      "##ডত": 7957,
      "##উকা": 7958,
      "##ভম্ব": 7959,
      "##ফান": 7960,
      "##ফড়া": 7961,
      "##ধনা": 7962,
      "##ঘরে": 7963,
      "##াইন্না": 7964,
      "কিছুর": 7965,
      "কিশর": 7966,
      "##লেজ": 7967,
      "বাহিনীর": 7968,
      "দিম": 7969,
      "দিগে": 7970,
      "দিরাম": 7971,
      "দেবার": 7972,
      "##াল্যা": 7973,
      "##াকাল": 7974,
      "##িনায়ক": 7975,
      "যেডি": 7976,
      "বিট": 7977,
      "করছিল": 7978,
      "আইলা": 7979,
      "আইপি": 7980,
      "##ুনু": 7981,
      "বেয়": 7982,
      "নিব": 7983,
      "নিবার": 7984,
      "নিতাম": 7985,
      "নিমু": 7986,
      "কইসে": 7987,
      "##ত্রাস": 7988,
      "যাইহোক": 7989,
      "কাডি": 7990,
      "সাজি": 7991,
      "নাইকা": 7992,
      "হাছি": 7993,
      "হইতাছে": 7994,
      "ভাতের": 7995,
      "দেখবি": 7996,
      "দেখমু": 7997,
      "##শিপ": 7998,
      "খইমু": 7999,
      "##ান্দি": 8000,
      "পাজের": 8001,
      "গাঞ্জন": 8002,
      "অনেখে": 8003,
      "হেগো": 8004,
      "হেঁততে": 8005,
      "খাটি": 8006,
      "খালায়": 8007,
      "খাসির": 8008,
      "সেন": 8009,
      "খেজুর": 8010,
      "খাইয়্যে": 8011,
      "হয়ত": 8012,
      "লইছি": 8013,
      "লাইগ্গা": 8014,
      "স্থায়": 8015,
      "স্কিল": 8016,
      "মানুষকে": 8017,
      "সিএন": 8018,
      "আসতিছে": 8019,
      "চাইড্ডে": 8020,
      "মোড়": 8021,
      "এরুম": 8022,
      "বইর": 8023,
      "দিয়াম": 8024,
      "কয়লা": 8025,
      "বলছেন": 8026,
      "ফাত": 8027,
      "##চ্ছেদ": 8028,
      "##ানাত": 8029,
      "রেগে": 8030,
      "##মেলো": 8031,
      "বুঝন": 8032,
      "লাথি": 8033,
      "বাংলায়": 8034,
      "ভিজ": 8035,
      "কুনদিন": 8036,
      "অনুরো": 8037,
      "পাইয়ী": 8038,
      "টাহার": 8039,
      "##ন্ত্রণ": 8040,
      "কুয়া": 8041,
      "টিবি": 8042,
      "জিগায়": 8043,
      "রাখবে": 8044,
      "বছরর": 8045,
      "##গ্রে": 8046,
      "পিতা": 8047,
      "পিরি": 8048,
      "নিজস্ব": 8049,
      "আম্মে": 8050,
      "দামী": 8051,
      "জাদু": 8052,
      "স্বজন": 8053,
      "পারির": 8054,
      "কালাই": 8055,
      "উঠোয়": 8056,
      "শুনলে": 8057,
      "গাছটা": 8058,
      "প্রতিবে": 8059,
      "ওকটু": 8060,
      "লিখি": 8061,
      "এতক্ষণ": 8062,
      "অর্ডার": 8063,
      "গেলেও": 8064,
      "মেয়েটা": 8065,
      "ভুয়া": 8066,
      "করছিস": 8067,
      "ছেলেটি": 8068,
      "আলুর": 8069,
      "ডেকে": 8070,
      "কিচ্ছুই": 8071,
      "চায়না": 8072,
      "জুত্তে": 8073,
      "চোখত": 8074,
      "অ্যাক": 8075,
      "দেখেছি": 8076,
      "ফাল্": 8077,
      "চারকি": 8078,
      "চলিবু": 8079,
      "লাইগগা": 8080,
      "যতটুকু": 8081,
      "দৌড়ে": 8082,
      "জোড়া": 8083,
      "মুরগা": 8084,
      "এগগা": 8085,
      "বাগানের": 8086,
      "তাদেরকে": 8087,
      "গাইড়": 8088,
      "তাকিয়া": 8089,
      "পুরানা": 8090,
      "ভয়ংকর": 8091,
      "বেয়াকগুনেরে": 8092,
      "##এইডা": 8093,
      "অনুষ্ঠিত": 8094,
      "খারন": 8095,
      "লোকে": 8096,
      "হতভম্ব": 8097,
      "অতিথি": 8098,
      "বিছার": 8099,
      "বিছান": 8100,
      "এম্নেই": 8101,
      "ভালবাসা": 8102,
      "দেড়শো": 8103,
      "পড়াশুনা": 8104,
      "অধিনায়ক": 8105,
      "আন্নেরে": 8106,
      "ফ্রিয়": 8107,
      "বেবসা": 8108,
      "খেইল": 8109,
      "##ব্রু": 8110,
      "ব্যাবহার": 8111,
      "ফজরত": 8112,
      "হিরোইন": 8113,
      "ব্লু": 8114,
      "বিদ্যালয়": 8115,
      "শৈশব": 8116,
      "সন্ত্রাস": 8117,
      "বরিশালে": 8118,
      "থিকাই": 8119,
      "মেহমান": 8120,
      "মইধ্যি": 8121,
      "##ৃঙ্খলা": 8122,
      "ভঙ্গিতে": 8123,
      "হসপি": 8124,
      "ধ্বংস": 8125,
      "বিরেনি": 8126,
      "হাইকোর্ট": 8127,
      "অনুসন্ধ": 8128,
      "সুস্বাদু": 8129,
      "স্থায়ী": 8130,
      "আড়": 8131,
      "আচার": 8132,
      "ইর": 8133,
      "ইক্টু": 8134,
      "উনারে": 8135,
      "এডের": 8136,
      "ঔষ": 8137,
      "কড়": 8138,
      "কন্ট": 8139,
      "কবর": 8140,
      "কট্টি": 8141,
      "চানা": 8142,
      "ছুই": 8143,
      "ডাইন": 8144,
      "দ্বার": 8145,
      "ধরার": 8146,
      "ধানের": 8147,
      "নার্স": 8148,
      "পোক": 8149,
      "পক্ষে": 8150,
      "ফেরা": 8151,
      "ফ্ল": 8152,
      "বেরে": 8153,
      "বমি": 8154,
      "মনির": 8155,
      "রকি": 8156,
      "রসিক": 8157,
      "লামি": 8158,
      "সজি": 8159,
      "হূ": 8160,
      "হনি": 8161,
      "হুরু": 8162,
      "##োরে": 8163,
      "##বরে": 8164,
      "##বরি": 8165,
      "##ইবার": 8166,
      "##হল": 8167,
      "##হ্ন": 8168,
      "##যান": 8169,
      "##শতে": 8170,
      "##আলা": 8171,
      "##ডুল": 8172,
      "##সভা": 8173,
      "##ছয়": 8174,
      "##জনা": 8175,
      "##য়ালা": 8176,
      "##তাছো": 8177,
      "বাশ": 8178,
      "বাছ": 8179,
      "বাছি": 8180,
      "দিতাছি": 8181,
      "দেল": 8182,
      "দেচ্ছে": 8183,
      "##য়েস্ট": 8184,
      "এইরে": 8185,
      "বিজ্ঞ": 8186,
      "বিদেশি": 8187,
      "করত": 8188,
      "করের": 8189,
      "আইচ": 8190,
      "আইবা": 8191,
      "##বারো": 8192,
      "##বারিক": 8193,
      "মাছি": 8194,
      "মাতু": 8195,
      "বেলায়": 8196,
      "নিলো": 8197,
      "নিজির": 8198,
      "অইন": 8199,
      "যাইম": 8200,
      "যাইরো": 8201,
      "কাচ": 8202,
      "কাডে": 8203,
      "##বিল": 8204,
      "যাহ": 8205,
      "খইল্লে": 8206,
      "করেছিলাম": 8207,
      "খররা": 8208,
      "খরচা": 8209,
      "পাবার": 8210,
      "##াইন্য": 8211,
      "খাস": 8212,
      "খাছ": 8213,
      "বাইয়া": 8214,
      "সেপ্টে": 8215,
      "লইত": 8216,
      "লইবো": 8217,
      "মেট": 8218,
      "মেক": 8219,
      "লাইছি": 8220,
      "নামাই": 8221,
      "সিগ": 8222,
      "সিং": 8223,
      "আসবো": 8224,
      "আসুক": 8225,
      "আসপে": 8226,
      "মির": 8227,
      "ফাহু": 8228,
      "##গোল": 8229,
      "তাইরে": 8230,
      "বুঝতাম": 8231,
      "ক্লো": 8232,
      "দুজন": 8233,
      "দুপুর": 8234,
      "##ব্বার": 8235,
      "হেইডার": 8236,
      "চিল্লাই": 8237,
      "কোলে": 8238,
      "কোম্মে": 8239,
      "এখনকার": 8240,
      "থাখি": 8241,
      "মনোর": 8242,
      "বিয়াক": 8243,
      "ভিজে": 8244,
      "##প্তর": 8245,
      "টাউ": 8246,
      "ফেব্রু": 8247,
      "##ষ্ঠা": 8248,
      "বোলার": 8249,
      "জিব": 8250,
      "গোলাম": 8251,
      "ম্যাক্সিমাম": 8252,
      "পিচ": 8253,
      "তুঁরা": 8254,
      "জামে": 8255,
      "দামি": 8256,
      "ছুটির": 8257,
      "সংক্রান্ত": 8258,
      "জাস্ট": 8259,
      "এক্কারে": 8260,
      "দ্যাও": 8261,
      "রিং": 8262,
      "ক্ষ্যা": 8263,
      "ট্যাখা": 8264,
      "স্যাররে": 8265,
      "আমাদেরকে": 8266,
      "গ্যালে": 8267,
      "বিষণ্": 8268,
      "গেছিগা": 8269,
      "চাইরডা": 8270,
      "আরেকজনের": 8271,
      "##বায়ু": 8272,
      "কইরবের": 8273,
      "এতোদিন": 8274,
      "খেলতি": 8275,
      "মাইনষেরে": 8276,
      "নাগরিক": 8277,
      "নাগছোং": 8278,
      "##ক্সট": 8279,
      "বর্ণ": 8280,
      "বুইনের": 8281,
      "ফিররা": 8282,
      "নির্ম": 8283,
      "ফুটপা": 8284,
      "হারায়": 8285,
      "সমাচার": 8286,
      "বরই": 8287,
      "গতবার": 8288,
      "ফুরির": 8289,
      "বাজাই": 8290,
      "ফ্যামিলির": 8291,
      "আহো": 8292,
      "থাখতো": 8293,
      "কাছের": 8294,
      "জলদি": 8295,
      "জলবায়ু": 8296,
      "চুরির": 8297,
      "নদীতে": 8298,
      "প্রায়ই": 8299,
      "থাহিবু": 8300,
      "আওয়াজ": 8301,
      "নির্বাছন": 8302,
      "মাস্টার্স": 8303,
      "দুঃখিত": 8304,
      "সন্ধান": 8305,
      "এক্সাম": 8306,
      "অবস্থিত": 8307,
      "বিছনাত": 8308,
      "ক্লাব": 8309,
      "বেজ্ঞুন": 8310,
      "বেজ্ঞুনের": 8311,
      "কমিশনার": 8312,
      "বার্সে": 8313,
      "লেইহে": 8314,
      "পিছন": 8315,
      "এয়ারলাই": 8316,
      "প্রিপারেশন": 8317,
      "চৌধুরী": 8318,
      "পুকুরে": 8319,
      "ঝুট": 8320,
      "শিল্পী": 8321,
      "বওত": 8322,
      "আইডিয়া": 8323,
      "বিনিময়": 8324,
      "টার্গেট": 8325,
      "অনুমতি": 8326,
      "ঢাহাত": 8327,
      "১৯৭": 8328,
      "দুর্ঘ": 8329,
      "মোবাইলে": 8330,
      "ইউটিউব": 8331,
      "ভাইগ্নে": 8332,
      "সিলোটি": 8333,
      "মহব্ব": 8334,
      "নগদ": 8335,
      "আয়োজিত": 8336,
      "##প্রাপ্ত": 8337,
      "##রোধী": 8338,
      "এলোমেলো": 8339,
      "সূত্র": 8340,
      "মুবাইলো": 8341,
      "##ৈর্য": 8342,
      "মেশিন": 8343,
      "পর্যটন": 8344,
      "গয়না": 8345,
      "সানগ্লাস": 8346,
      "পশ্চিম": 8347,
      "ইনশাআল্লাহ": 8348,
      "রবীন্দ্রনাথ": 8349,
      "মরিয়ম": 8350,
      "জিজ্ঞাসা": 8351,
      "অনুরোধ": 8352,
      "বিষণ্ণ": 8353,
      "অটু": 8354,
      "অওয়া": 8355,
      "আডার": 8356,
      "আদায়": 8357,
      "ইস্ট": 8358,
      "উম্ম": 8359,
      "এগুলো": 8360,
      "ওপর": 8361,
      "কহ": 8362,
      "খোর": 8363,
      "ঘাই": 8364,
      "চন": 8365,
      "চুম": 8366,
      "টিনের": 8367,
      "ততো": 8368,
      "ত্যাল": 8369,
      "দুল": 8370,
      "ফছ": 8371,
      "ফত্ত": 8372,
      "ফাগা": 8373,
      "ফুরো": 8374,
      "বট": 8375,
      "বিনা": 8376,
      "মডেল": 8377,
      "রুল": 8378,
      "রতন": 8379,
      "লওয়া": 8380,
      "সাও": 8381,
      "হরা": 8382,
      "##লবা": 8383,
      "##টল": 8384,
      "##টকে": 8385,
      "##হ্যা": 8386,
      "##ক্যা": 8387,
      "##পানের": 8388,
      "##খর": 8389,
      "##ঝি": 8390,
      "##অহন": 8391,
      "নাহান": 8392,
      "কিপ্": 8393,
      "##ন্তিত": 8394,
      "##ড়তে": 8395,
      "##ড়ানো": 8396,
      "বাবায়": 8397,
      "বাধ্য": 8398,
      "দেছ": 8399,
      "দেনা": 8400,
      "এইছে": 8401,
      "এইদি": 8402,
      "এইহে": 8403,
      "##িনো": 8404,
      "যেবা": 8405,
      "যেঁততে": 8406,
      "আরম্ভ": 8407,
      "##াগদি": 8408,
      "করোনা": 8409,
      "করতিছে": 8410,
      "আইস্": 8411,
      "আইলি": 8412,
      "আইতাছি": 8413,
      "মাশু": 8414,
      "মাতিয়া": 8415,
      "ওইডার": 8416,
      "ওইছিল": 8417,
      "ওইলেও": 8418,
      "কইলা": 8419,
      "লাগদো": 8420,
      "সাফ": 8421,
      "##বিড়": 8422,
      "হাব": 8423,
      "##সেস": 8424,
      "##সিত": 8425,
      "##সিপি": 8426,
      "বুজ্জেন": 8427,
      "সবোর": 8428,
      "সবগুলা": 8429,
      "খইবো": 8430,
      "##ান্টি": 8431,
      "খররায়": 8432,
      "খরতায়": 8433,
      "থাকলো": 8434,
      "থাকলেও": 8435,
      "তাজা": 8436,
      "হেতো": 8437,
      "দুইজনের": 8438,
      "খুজ": 8439,
      "লইতে": 8440,
      "লইতাম": 8441,
      "সুহান": 8442,
      "মেমান": 8443,
      "মেজাজ": 8444,
      "সিঙ্গেল": 8445,
      "আসতো": 8446,
      "চাইত": 8447,
      "চাইছি": 8448,
      "মোটে": 8449,
      "মাইক": 8450,
      "মাইয়্যার": 8451,
      "গরতে": 8452,
      "তেকি": 8453,
      "ফাডা": 8454,
      "অনেকটা": 8455,
      "ছাদে": 8456,
      "আপ্": 8457,
      "আপা": 8458,
      "ব্যাফারে": 8459,
      "##চাপ": 8460,
      "বুঝছ": 8461,
      "দুউয়ো": 8462,
      "জানলা": 8463,
      "জানাইন": 8464,
      "হেইলা": 8465,
      "দাড়াই": 8466,
      "পারন": 8467,
      "পারছে": 8468,
      "গইত্তাম": 8469,
      "কোঁ": 8470,
      "কোলো": 8471,
      "কোথাও": 8472,
      "ফাইরা": 8473,
      "থাহো": 8474,
      "মনটা": 8475,
      "গুদ": 8476,
      "ব্যয়": 8477,
      "পাইয়া": 8478,
      "ফিরিয়া": 8479,
      "ফেন": 8480,
      "##ন্ত্রী": 8481,
      "শিফট": 8482,
      "টিয়ার": 8483,
      "টিক্কা": 8484,
      "আনবো": 8485,
      "আনন্দে": 8486,
      "জিওয়": 8487,
      "গোশ": 8488,
      "সেইডে": 8489,
      "হাইস্": 8490,
      "ক্যামন": 8491,
      "পড়ায়": 8492,
      "ডিস": 8493,
      "ছুডো": 8494,
      "সংখ্যা": 8495,
      "বানাও": 8496,
      "আইসসু": 8497,
      "আইসছিল": 8498,
      "আইসক্রিম": 8499,
      "স্বরাষ্ট্র": 8500,
      "স্বাগত": 8501,
      "রিজাল্ট": 8502,
      "কালী": 8503,
      "দেখাত": 8504,
      "বন্ধুত্ব": 8505,
      "ফইসা": 8506,
      "গাছত": 8507,
      "বেয়াক্কুন": 8508,
      "ছাইরা": 8509,
      "লিডার": 8510,
      "লিচু": 8511,
      "এতদিন": 8512,
      "কিলাশ": 8513,
      "চুয়া": 8514,
      "চুলা": 8515,
      "যেইল্লা": 8516,
      "কেনতে": 8517,
      "কইরতাম": 8518,
      "অতী": 8519,
      "খামার": 8520,
      "ইনজ": 8521,
      "বানাইছি": 8522,
      "অসুস্ত": 8523,
      "চায়ের": 8524,
      "পইড়ে": 8525,
      "বুজলাম": 8526,
      "পায়ের": 8527,
      "বান্দ": 8528,
      "দাঁড়াই": 8529,
      "##শুদিন": 8530,
      "মুর্": 8531,
      "এগার": 8532,
      "##ঁইচা": 8533,
      "বাগানে": 8534,
      "তামান্নারে": 8535,
      "আরাদিন": 8536,
      "রহমত": 8537,
      "কয়েকজন": 8538,
      "অপমান": 8539,
      "দোকানদার": 8540,
      "বোঝছো": 8541,
      "কঠোর": 8542,
      "দিয়্যেনে": 8543,
      "##যাপন": 8544,
      "থাইকতু": 8545,
      "খুইজ্জা": 8546,
      "বদলাই": 8547,
      "বেচারা": 8548,
      "তাখতো": 8549,
      "সুখের": 8550,
      "আশায়": 8551,
      "এডিয়্যার": 8552,
      "প্রাইমারি": 8553,
      "লেইখা": 8554,
      "##ফুয়া": 8555,
      "খাতাত": 8556,
      "ডইল্লা": 8557,
      "উইঠতি": 8558,
      "বার্সিটির": 8559,
      "বোইনের": 8560,
      "আম্নেরে": 8561,
      "গেরাম": 8562,
      "চকলেট": 8563,
      "অঞ্চলের": 8564,
      "শুইনে": 8565,
      "গর্ব": 8566,
      "ধুইয়া": 8567,
      "বুজ্জস": 8568,
      "ঐতিহ্য": 8569,
      "নজরুল": 8570,
      "ওঠে": 8571,
      "তৃতীয়": 8572,
      "গঠিত": 8573,
      "য্যাছি": 8574,
      "শরীফ": 8575,
      "হাঁটতে": 8576,
      "অন্তত": 8577,
      "কবুতর": 8578,
      "##শেষে": 8579,
      "শাহাদা": 8580,
      "স্বফনো": 8581,
      "লাইব্রেরি": 8582,
      "কুটুম": 8583,
      "সিন্দুক": 8584,
      "বুড়িগঙ্গা": 8585,
      "ইপতারি": 8586,
      "সাঁতার": 8587,
      "সবচাইতে": 8588,
      "সেপ্টেম্বর": 8589,
      "বার্সেলোনা": 8590,
      "অরো": 8591,
      "অলর": 8592,
      "অত্তো": 8593,
      "আতা": 8594,
      "আহা": 8595,
      "আজ্জা": 8596,
      "উত": 8597,
      "উস": 8598,
      "উফর": 8599,
      "উন্নি": 8600,
      "এলাম": 8601,
      "এল্লাই": 8602,
      "কোক": 8603,
      "কঁচু": 8604,
      "খড়ি": 8605,
      "খতিকগিন": 8606,
      "চউখ": 8607,
      "ছারি": 8608,
      "টাল": 8609,
      "তন": 8610,
      "থম": 8611,
      "ধরায়": 8612,
      "ধৈর্য": 8613,
      "পেই": 8614,
      "ফত্তে": 8615,
      "বত": 8616,
      "বোর": 8617,
      "বল্লা": 8618,
      "বেরা": 8619,
      "রী": 8620,
      "রগ": 8621,
      "রুই": 8622,
      "রাম": 8623,
      "শ্রম": 8624,
      "সৃ": 8625,
      "হনে": 8626,
      "হার্": 8627,
      "্যা": 8628,
      "২৮": 8629,
      "##ললা": 8630,
      "##মূল": 8631,
      "##হাল": 8632,
      "##হারে": 8633,
      "##ুড়": 8634,
      "##শারে": 8635,
      "##পয়": 8636,
      "##উলের": 8637,
      "##সুনা": 8638,
      "##য়ও": 8639,
      "##্যো": 8640,
      "নাো": 8641,
      "নাদি": 8642,
      "আমডার": 8643,
      "##ন্ন্যে": 8644,
      "বালি": 8645,
      "##টাম": 8646,
      "যেভাবে": 8647,
      "যেসব": 8648,
      "যেখটা": 8649,
      "বিলি": 8650,
      "বিলের": 8651,
      "বিকেল": 8652,
      "মাতায়": 8653,
      "বেড়ে": 8654,
      "বেডায়": 8655,
      "বেহেই": 8656,
      "নিহত": 8657,
      "##লিষ্ট": 8658,
      "##োনের": 8659,
      "মানায়": 8660,
      "##কাও": 8661,
      "কাটাই": 8662,
      "তারাই": 8663,
      "সাবে": 8664,
      "সাধু": 8665,
      "সাউন্ড": 8666,
      "নাইন": 8667,
      "কেষ্ট": 8668,
      "কেডায়": 8669,
      "দেখছেন": 8670,
      "যাদের": 8671,
      "তোমায়": 8672,
      "খরাই": 8673,
      "খরবে": 8674,
      "পাত": 8675,
      "পাবেন": 8676,
      "থাকবেন": 8677,
      "##ডিত": 8678,
      "গাড়": 8679,
      "কোনটে": 8680,
      "বাইদ্দা": 8681,
      "খেতো": 8682,
      "দুইশ": 8683,
      "দুইডাই": 8684,
      "খাইল": 8685,
      "টেকার": 8686,
      "স্মার্ট": 8687,
      "সিট": 8688,
      "সিভি": 8689,
      "মুস্তা": 8690,
      "মিউ": 8691,
      "মিক্কা": 8692,
      "মিমের": 8693,
      "কথাটা": 8694,
      "##ক্ষুম": 8695,
      "ফুয়াই": 8696,
      "##গুলোর": 8697,
      "ছালা": 8698,
      "রেসিপি": 8699,
      "##াকাটি": 8700,
      "জানোইন": 8701,
      "পারলি": 8702,
      "থাবড়": 8703,
      "মনু": 8704,
      "মনও": 8705,
      "##োয়াল": 8706,
      "গুল্লি": 8707,
      "##প্তার": 8708,
      "লেগে": 8709,
      "পাইর": 8710,
      "হবেনে": 8711,
      "##ঙ্গীর": 8712,
      "জিদ": 8713,
      "সামর্থ": 8714,
      "সামাইন্য": 8715,
      "বারান্": 8716,
      "কতক্ষণ": 8717,
      "পিঁ": 8718,
      "পড়ো": 8719,
      "ডিসে": 8720,
      "জাম্": 8721,
      "পোলারে": 8722,
      "সংশ্": 8723,
      "শাশুড়ি": 8724,
      "দ্যাখা": 8725,
      "যারার": 8726,
      "##শেদ": 8727,
      "বন্ধুরা": 8728,
      "আরোখ": 8729,
      "ঘুমাইতে": 8730,
      "শুননু": 8731,
      "ফইজ্জে": 8732,
      "কিনছে": 8733,
      "কিনবার": 8734,
      "পুত্র": 8735,
      "আরেকদিন": 8736,
      "বাপরে": 8737,
      "যুবক": 8738,
      "খেলছে": 8739,
      "খেলতাছে": 8740,
      "##ন্দিয়ার": 8741,
      "এবারা": 8742,
      "ওয়াচ": 8743,
      "এহান": 8744,
      "মাতৃ": 8745,
      "বুইলে": 8746,
      "পড়ালেহা": 8747,
      "নানুর": 8748,
      "পড়েছি": 8749,
      "অ্যাপ": 8750,
      "নির্মাণ": 8751,
      "আগেরদিন": 8752,
      "মারিয়া": 8753,
      "লাইগগি": 8754,
      "জ্বল": 8755,
      "পার্ক": 8756,
      "বাজায়": 8757,
      "##্যান্ডের": 8758,
      "পোলাডা": 8759,
      "রাগি": 8760,
      "রুমি": 8761,
      "ক্ষেতো": 8762,
      "বাজেট": 8763,
      "নামায": 8764,
      "ইংলিশে": 8765,
      "বাঁশ": 8766,
      "হনুম": 8767,
      "ধারের": 8768,
      "ফ্রতম": 8769,
      "হাসপাতালত": 8770,
      "ঘোরে": 8771,
      "উদ্ভি": 8772,
      "ত্থুন": 8773,
      "পাঠাই": 8774,
      "লুকিয়ে": 8775,
      "ল্যাগ": 8776,
      "দিওন": 8777,
      "সর্দি": 8778,
      "তাখলে": 8779,
      "সন্ধ্যায়": 8780,
      "##হুলে": 8781,
      "আশ্ব": 8782,
      "প্যাকে": 8783,
      "স্কুলো": 8784,
      "##চর্য": 8785,
      "হয়তোবা": 8786,
      "নুডুল": 8787,
      "পৌর": 8788,
      "##ষ্ঠী": 8789,
      "গুমাই": 8790,
      "এলহা": 8791,
      "পাকু": 8792,
      "যেরম": 8793,
      "মেঘের": 8794,
      "চার্জার": 8795,
      "আগ্রহী": 8796,
      "দেহেন": 8797,
      "থানায়": 8798,
      "পৃথিবীর": 8799,
      "ঢুইক": 8800,
      "ওয়ালট": 8801,
      "ট্রান্স": 8802,
      "ভবিষ্যৎ": 8803,
      "ফাগার": 8804,
      "হেইরপর": 8805,
      "মোবাইলোত": 8806,
      "জনগণর": 8807,
      "দূর্বল": 8808,
      "দারোয়ান": 8809,
      "মাদ্রাসা": 8810,
      "মাইয়াফোয়ার": 8811,
      "সবকিছুই": 8812,
      "তেতুল": 8813,
      "চিটাইঙ্গা": 8814,
      "মুক্তিযুদ্ধ": 8815,
      "অফেক্ষা": 8816,
      "খয়েখ": 8817,
      "##দৌড়ি": 8818,
      "ফলাফল": 8819,
      "ছাগলের": 8820,
      "তরমুজ": 8821,
      "ঠোঁট": 8822,
      "দ্বীপ": 8823,
      "মাইধ্যমে": 8824,
      "কারখানায়": 8825,
      "ক্যাপ্টেন": 8826,
      "ডেভেলপ": 8827,
      "গল্ফো": 8828,
      "কপালে": 8829,
      "নরেন্দ্র": 8830,
      "ফ্ল্যা": 8831,
      "সংশ্লিষ্ট": 8832,
      "অষ্ট": 8833,
      "অভার": 8834,
      "আচ": 8835,
      "আকি": 8836,
      "আকর্": 8837,
      "ইলি": 8838,
      "ইটাই": 8839,
      "উয়ের": 8840,
      "উধে": 8841,
      "এলি": 8842,
      "ওনু": 8843,
      "ওত্তো": 8844,
      "কাওয়া": 8845,
      "কঁততে": 8846,
      "খুর": 8847,
      "চিক": 8848,
      "ঝে": 8849,
      "টুম্": 8850,
      "তলাত": 8851,
      "দাই": 8852,
      "ধুর": 8853,
      "ধ্যান": 8854,
      "নদি": 8855,
      "নার্": 8856,
      "ন্যায়": 8857,
      "পচ": 8858,
      "পের": 8859,
      "পিন": 8860,
      "পদ্ধ": 8861,
      "পণ্য": 8862,
      "ফস": 8863,
      "ফতে": 8864,
      "ফ্লা": 8865,
      "বনে": 8866,
      "মতি": 8867,
      "যারে": 8868,
      "লাম্": 8869,
      "সাক্ষ": 8870,
      "হস্ট": 8871,
      "হন্ডে": 8872,
      "২৪": 8873,
      "##তই": 8874,
      "##তরি": 8875,
      "##বলেট": 8876,
      "##মানি": 8877,
      "##মনি": 8878,
      "##ইল্লা": 8879,
      "##কই": 8880,
      "##ক্রম": 8881,
      "##শরা": 8882,
      "##আজার": 8883,
      "##ওত": 8884,
      "##পণ": 8885,
      "##উত": 8886,
      "##ভ্য": 8887,
      "##ভির": 8888,
      "##ভূত": 8889,
      "##ধের": 8890,
      "##অই": 8891,
      "##ঘুরি": 8892,
      "##য়োই": 8893,
      "##ানুল": 8894,
      "আমগা": 8895,
      "কিস্তি": 8896,
      "##ন্টায়": 8897,
      "##লেমান": 8898,
      "বাধ": 8899,
      "দিলায়": 8900,
      "##য়েস": 8901,
      "এইডারে": 8902,
      "যেখান": 8903,
      "##বেনে": 8904,
      "বিয়ান": 8905,
      "বিহালে": 8906,
      "আইসি": 8907,
      "আইগা": 8908,
      "আইছইন": 8909,
      "##ক্তার": 8910,
      "মাজ": 8911,
      "মাত্তে": 8912,
      "মাদার": 8913,
      "মাশাল্লাহ": 8914,
      "##বাচক": 8915,
      "বেয়ানে": 8916,
      "নিবা": 8917,
      "অইয়ো": 8918,
      "##লিজ": 8919,
      "গেট": 8920,
      "##কাঠ": 8921,
      "##না্ড": 8922,
      "সমৃদ্ধ": 8923,
      "কাস্ট": 8924,
      "কাফড়": 8925,
      "##ন্তর": 8926,
      "হাড়ি": 8927,
      "হাবো": 8928,
      "কেয়ার": 8929,
      "দেখং": 8930,
      "যাতা": 8931,
      "যাবু": 8932,
      "যাচ্ছ": 8933,
      "রাহুলে": 8934,
      "বুগি": 8935,
      "##শিত": 8936,
      "খইবার": 8937,
      "খরলায়": 8938,
      "প্রতম": 8939,
      "প্রকৃ": 8940,
      "প্রসঙ্গে": 8941,
      "পাটা": 8942,
      "তাহি": 8943,
      "সেনা": 8944,
      "সুজা": 8945,
      "সুপার": 8946,
      "মেন": 8947,
      "লাইগ্": 8948,
      "কিছুটা": 8949,
      "##তারছ": 8950,
      "নামকরা": 8951,
      "সিরি": 8952,
      "আসক্ত": 8953,
      "##ালিশ": 8954,
      "মিডা": 8955,
      "কথাবার্তা": 8956,
      "মাইল": 8957,
      "বলবি": 8958,
      "ফুস": 8959,
      "ফাখ": 8960,
      "ছাতা": 8961,
      "ছাবি": 8962,
      "রেস্ট": 8963,
      "দিনোর": 8964,
      "জানস": 8965,
      "জানাল": 8966,
      "##ঞ্চি": 8967,
      "দাড়": 8968,
      "##চেন": 8969,
      "চিন্তিত": 8970,
      "পারলাম": 8971,
      "নেক": 8972,
      "নেবো": 8973,
      "ফরবো": 8974,
      "ফাইজ": 8975,
      "ফাইতাম": 8976,
      "ফাইত্ত": 8977,
      "দিয়েই": 8978,
      "দিয়েছেন": 8979,
      "হিট": 8980,
      "ভিড়": 8981,
      "ভিজি": 8982,
      "পাইরা": 8983,
      "ফিস": 8984,
      "ফিন্দা": 8985,
      "গেইট": 8986,
      "গেইয়ি": 8987,
      "বাংলাদেশরে": 8988,
      "ছিলে": 8989,
      "শেষের": 8990,
      "শিখা": 8991,
      "শিখি": 8992,
      "##ত্তুনা": 8993,
      "জন্যেই": 8994,
      "ফরিষ্কার": 8995,
      "আনাই": 8996,
      "আনলে": 8997,
      "আনুষ্ঠ": 8998,
      "দরোইন": 8999,
      "##স্তাব": 9000,
      "রাখতো": 9001,
      "সেইটা": 9002,
      "মাঝখান": 9003,
      "ম্যাসে": 9004,
      "নিজেরা": 9005,
      "ক্যায়া": 9006,
      "মারলে": 9007,
      "ঘরোর": 9008,
      "পোশাক": 9009,
      "জাফল": 9010,
      "জীবনো": 9011,
      "আইসসুম": 9012,
      "##পিত": 9013,
      "দ্যাউ": 9014,
      "দ্যাশে": 9015,
      "স্বর্": 9016,
      "ডাহি": 9017,
      "পেঁ": 9018,
      "পেতে": 9019,
      "ঘুমে": 9020,
      "ঘুমিয়ে": 9021,
      "পানিত": 9022,
      "রোগা": 9023,
      "গইরগুম": 9024,
      "হাসফাতা": 9025,
      "অন্যরকম": 9026,
      "আব্বুর": 9027,
      "প্রতিযোগি": 9028,
      "চলতো": 9029,
      "চলতাছে": 9030,
      "চলতিছে": 9031,
      "যুগে": 9032,
      "দেহুইন": 9033,
      "বাড়িরতে": 9034,
      "##বাদী": 9035,
      "##বাইর": 9036,
      "মাততে": 9037,
      "খোজ": 9038,
      "##ফেক্ট": 9039,
      "শরণ": 9040,
      "খরাত": 9041,
      "খাবারের": 9042,
      "বিশ্বব্যা": 9043,
      "মারাত্ম": 9044,
      "##গইঞ্জ": 9045,
      "##দ্দিয়া": 9046,
      "ঘাড়": 9047,
      "জ্বালাই": 9048,
      "##থমিক": 9049,
      "হতাশ": 9050,
      "##ট্টে": 9051,
      "এগলা": 9052,
      "বিদ্যা": 9053,
      "আম্মুরে": 9054,
      "বেইচে": 9055,
      "করবাইন": 9056,
      "অর্থমন্ত্রী": 9057,
      "তালিকা": 9058,
      "সরকারর": 9059,
      "গিয়েছিলাম": 9060,
      "কাটছে": 9061,
      "পাল্": 9062,
      "সৌর": 9063,
      "শিক্ষিত": 9064,
      "ভাবির": 9065,
      "ঢাখার": 9066,
      "চিনিস": 9067,
      "ব্যাঙা": 9068,
      "ল্যাপটপ": 9069,
      "প্রাথমিক": 9070,
      "কম্বো": 9071,
      "ভারত": 9072,
      "কান্দে": 9073,
      "কেরলাই": 9074,
      "মিলন": 9075,
      "লাগায়া": 9076,
      "সইন্ধ": 9077,
      "মিলিয়া": 9078,
      "দারুন": 9079,
      "অধ্যা": 9080,
      "জানাইছইন": 9081,
      "বায়দি": 9082,
      "##ন্টেশন": 9083,
      "জেলাডা": 9084,
      "বেগগিন": 9085,
      "রহমানের": 9086,
      "মাদ্রি": 9087,
      "ব্যাফারটা": 9088,
      "আকাশের": 9089,
      "মহাপুরুষ": 9090,
      "বাচ্চার": 9091,
      "ইউনিভার্সিটির": 9092,
      "হালিয়্যে": 9093,
      "যাগাত": 9094,
      "গুলার": 9095,
      "শ্রদ্ধা": 9096,
      "টেবিল": 9097,
      "অর্থনীতি": 9098,
      "বিমানবন্দরত": 9099,
      "হেলবা": 9100,
      "ঢেউ": 9101,
      "অখলে": 9102,
      "পুনারো": 9103,
      "শ্বাসকষ্ট": 9104,
      "গঠন": 9105,
      "বিফদ": 9106,
      "মৈচ": 9107,
      "সাথেই": 9108,
      "হাসাহা": 9109,
      "ভাইরাল": 9110,
      "জইন্ন্যে": 9111,
      "স্বাক্ষরিত": 9112,
      "অমুক": 9113,
      "ডিজিটাল": 9114,
      "আলামিন": 9115,
      "নিষেধ": 9116,
      "কোহলি": 9117,
      "প্রিন্সিপাল": 9118,
      "##পোরেশন": 9119,
      "বাস্তবায়ন": 9120,
      "আশ্চর্য": 9121,
      "একুশ": 9122,
      "রাজশাহী": 9123,
      "উঢি": 9124,
      "পাজেরো": 9125,
      "মহব্বত": 9126,
      "লাম্বা": 9127,
      "আনুষ্ঠানিক": 9128,
      "জাফলং": 9129,
      "অটা": 9130,
      "অক্ষ": 9131,
      "অঙ্গ": 9132,
      "আন্দা": 9133,
      "ইনি": 9134,
      "ইগুন": 9135,
      "ইবেরে": 9136,
      "উগ্গা": 9137,
      "উঁচু": 9138,
      "এডারে": 9139,
      "এহাজার": 9140,
      "ওতি": 9141,
      "ওদিক": 9142,
      "কন্টা": 9143,
      "কদ্দুর": 9144,
      "ছেই": 9145,
      "ছুল": 9146,
      "ছল্লিশ": 9147,
      "ছযা": 9148,
      "জুত": 9149,
      "টায়": 9150,
      "ড্রি": 9151,
      "ঢো": 9152,
      "ঢং": 9153,
      "তলা": 9154,
      "থার্ড": 9155,
      "দারি": 9156,
      "দানা": 9157,
      "পলি": 9158,
      "পদ্": 9159,
      "প্যাঁ": 9160,
      "পামু": 9161,
      "ফারা": 9162,
      "ভঙ্গ": 9163,
      "ভয়াব": 9164,
      "মেই": 9165,
      "মমি": 9166,
      "মঞ্জ": 9167,
      "মশার": 9168,
      "যথা": 9169,
      "লজে": 9170,
      "সস": 9171,
      "হজ": 9172,
      "হটা": 9173,
      "হুর": 9174,
      "হ্যান": 9175,
      "##ীণ": 9176,
      "##বলি": 9177,
      "##ইরে": 9178,
      "##দদে": 9179,
      "##গণ": 9180,
      "##গাও": 9181,
      "##ওরে": 9182,
      "##পাকে": 9183,
      "##পক্ষে": 9184,
      "##প্রাই": 9185,
      "##উরা": 9186,
      "##জাগ": 9187,
      "##ফরাজ": 9188,
      "##চছ": 9189,
      "##য়দ": 9190,
      "নাতিন": 9191,
      "##য়াস": 9192,
      "কিয়েরে": 9193,
      "কিওর": 9194,
      "##ন্তোর": 9195,
      "তোলা": 9196,
      "##তালি": 9197,
      "##রাব": 9198,
      "বাহা": 9199,
      "দিচ্ছে": 9200,
      "দিচি": 9201,
      "দিখ্যা": 9202,
      "##য়েন্টি": 9203,
      "এইখান": 9204,
      "এইলার": 9205,
      "এইটার": 9206,
      "এইটাই": 9207,
      "যেখানো": 9208,
      "যেবলা": 9209,
      "##বেল্লাই": 9210,
      "##ুমু": 9211,
      "বিগ": 9212,
      "বিতুরে": 9213,
      "বিবাহিত": 9214,
      "আমিরা": 9215,
      "করচি": 9216,
      "আইসেন": 9217,
      "আইয়্যেরে": 9218,
      "মালে": 9219,
      "মালেক": 9220,
      "অইতেছে": 9221,
      "ওইদে": 9222,
      "ওইদিক": 9223,
      "ওইগলে": 9224,
      "কইম": 9225,
      "##চ্ছিলাম": 9226,
      "##কেও": 9227,
      "লাগল": 9228,
      "##বোই": 9229,
      "কাদের": 9230,
      "হাতো": 9231,
      "হাঁই": 9232,
      "##য়্যুন": 9233,
      "হইতু": 9234,
      "কেঁ": 9235,
      "কেলাস": 9236,
      "##ন্দুরে": 9237,
      "রাহা": 9238,
      "সবের": 9239,
      "খইয়ে": 9240,
      "খইউম": 9241,
      "করেনা": 9242,
      "খরছো": 9243,
      "পালা": 9244,
      "##ডিয়াম": 9245,
      "হেতনে": 9246,
      "ভালোবাই": 9247,
      "সেও": 9248,
      "সেখান": 9249,
      "খাইস": 9250,
      "খাইবু": 9251,
      "ভাইয়ার": 9252,
      "হয়না": 9253,
      "সুজন": 9254,
      "সুলেমান": 9255,
      "মেমোরি": 9256,
      "লাইগে": 9257,
      "স্পোর্ট": 9258,
      "##জনশীল": 9259,
      "যায়না": 9260,
      "##তারলে": 9261,
      "চাইবার": 9262,
      "মুটা": 9263,
      "মুকে": 9264,
      "মোটেই": 9265,
      "এরলাগি": 9266,
      "বইনে": 9267,
      "বইয়েনে": 9268,
      "##ক্ষায়": 9269,
      "##হিম": 9270,
      "##হিত্য": 9271,
      "বলছো": 9272,
      "##ম্ন": 9273,
      "ফাহা": 9274,
      "ফাহুই": 9275,
      "তাইতো": 9276,
      "দিনও": 9277,
      "ইয়াডা": 9278,
      "বুঝলি": 9279,
      "##ঞ্চে": 9280,
      "তুয়ারে": 9281,
      "পারুল": 9282,
      "##ভাষা": 9283,
      "ফরশি": 9284,
      "কোথা": 9285,
      "ফাইয়া": 9286,
      "ফাইলাম": 9287,
      "ফাইবু": 9288,
      "থাউক": 9289,
      "পরেও": 9290,
      "কারোর": 9291,
      "গুস্ত": 9292,
      "সুন্দরভাবে": 9293,
      "ভিটে": 9294,
      "কামর": 9295,
      "কামনা": 9296,
      "ছেহারা": 9297,
      "লেদা": 9298,
      "লেখার": 9299,
      "পাইতে": 9300,
      "পাইজজুম": 9301,
      "টাত": 9302,
      "শিব": 9303,
      "শিওর": 9304,
      "কুত্তার": 9305,
      "##পাশ": 9306,
      "ফরির": 9307,
      "ফরিবো": 9308,
      "মইর": 9309,
      "রাখমু": 9310,
      "রাইহে": 9311,
      "খরিম": 9312,
      "সাইবার": 9313,
      "আজান": 9314,
      "ক্যাশ": 9315,
      "##সম্যান": 9316,
      "ধরোইন": 9317,
      "ধরনর": 9318,
      "সংযুক্ত": 9319,
      "বানানো": 9320,
      "সরফরাজ": 9321,
      "মামির": 9322,
      "রিট": 9323,
      "নেইন": 9324,
      "উঠিয়া": 9325,
      "বন্ধুরে": 9326,
      "পেপার": 9327,
      "পেঁয়াজ": 9328,
      "হাসান": 9329,
      "পুতি": 9330,
      "গেছিস": 9331,
      "উইন্দি": 9332,
      "ফারিবি": 9333,
      "মেলাদিন": 9334,
      "চলন": 9335,
      "চলতি": 9336,
      "চলবো": 9337,
      "চলচ্চি": 9338,
      "চুদি": 9339,
      "সাবরে": 9340,
      "নয়টা": 9341,
      "ইনভে": 9342,
      "##চারী": 9343,
      "বাদাম": 9344,
      "ইতিবাচক": 9345,
      "প্রধানমন্ত্রীরে": 9346,
      "চইলা": 9347,
      "##করণ": 9348,
      "সাতাইশ": 9349,
      "ফালতু": 9350,
      "কওন": 9351,
      "বুজাই": 9352,
      "বিরক্তি": 9353,
      "আইছিন": 9354,
      "বুঝিছিস": 9355,
      "##ণ্ঠ": 9356,
      "ইয়ারো": 9357,
      "জোরা": 9358,
      "ইকটা": 9359,
      "কাইলগো": 9360,
      "##্যান্নে": 9361,
      "গ্রামোর": 9362,
      "পরিবারর": 9363,
      "ছুডুবালা": 9364,
      "অফিসো": 9365,
      "হাঁটা": 9366,
      "কাটতে": 9367,
      "দুর্ন": 9368,
      "দেবেনে": 9369,
      "শুকনা": 9370,
      "কিনিয়া": 9371,
      "##বাড়িত": 9372,
      "##বাড়ির": 9373,
      "##চোদ": 9374,
      "ম্যানেজ": 9375,
      "##ষুধ": 9376,
      "কান্দ": 9377,
      "মাস্টর": 9378,
      "ফড়িয়া": 9379,
      "তানরে": 9380,
      "হলিও": 9381,
      "টোটাল": 9382,
      "কৃষ্ণ": 9383,
      "আব্বুরে": 9384,
      "##য়ার্ড": 9385,
      "বিশ্ববিদ্যালয়ের": 9386,
      "দ্যাখলাম": 9387,
      "ফাশশো": 9388,
      "ইয়ানা": 9389,
      "##কন্যা": 9390,
      "ফেসবুকত": 9391,
      "ইন্ডিয়ায়": 9392,
      "উইঠে": 9393,
      "কত্তিছে": 9394,
      "বঙ্গবন্ধুর": 9395,
      "কক্সবাজারর": 9396,
      "ফ্রায়": 9397,
      "ফাচটা": 9398,
      "কুরবানি": 9399,
      "ওলাখান": 9400,
      "ব্লগার": 9401,
      "নিউজিল": 9402,
      "অবিজ্ঞতা": 9403,
      "ট্রেন": 9404,
      "আঙ্কেল": 9405,
      "##সিনো": 9406,
      "নরসিংদীর": 9407,
      "দোয়ানত": 9408,
      "ভবিষ্যতে": 9409,
      "বিড়াল": 9410,
      "লিখতে": 9411,
      "রহমতে": 9412,
      "শর্ট": 9413,
      "##ুমাত্র": 9414,
      "##গ্রিম": 9415,
      "দুকানে": 9416,
      "পিকনিক": 9417,
      "মূল্যবান": 9418,
      "ছাখরী": 9419,
      "স্মরণীয়": 9420,
      "মাইয়াফোয়ারে": 9421,
      "প্রচন্ড": 9422,
      "প্রতিষ্ঠান": 9423,
      "শহীদ": 9424,
      "অগ্রগ": 9425,
      "মুহূর্তে": 9426,
      "হেতাগো": 9427,
      "ঝাড়ু": 9428,
      "উৎসাহ": 9429,
      "বিসিএস": 9430,
      "ধানমন্ডি": 9431,
      "টমেটো": 9432,
      "বান্দুবি": 9433,
      "আমেরিকান": 9434,
      "ডেড়স": 9435,
      "##াল্যাহা": 9436,
      "প্রতিবেদন": 9437,
      "দ্বারা": 9438,
      "ফেব্রুয়ারি": 9439,
      "সৃজনশীল": 9440,
      "নুডুলস": 9441,
      "আকর্ষণ": 9442,
      "হাসাহাসি": 9443,
[...]
